[PAD]
[EOS]
[UNK]
[CLS]
[SEP]
[MASK]
t
http
co
die
der
rt
ich
und
##n
in
##e
##t
##s
##en
das
ist
für
mit
ein
nicht
auf
von
##r
im
es
zu
den
##er
auch
so
bei
##a
wir
sie
##ung
was
noch
eine
aber
an
am
aus
habe
du
wie
hat
##l
sich
dem
##o
ja
man
heute
jetzt
sind
nur
##d
nach
1
als
zum
##m
mal
über
s
wird
##i
des
schon
2
mir
um
wenn
vor
##y
da
wieder
kann
##h
##k
mehr
3
dass
mich
einen
##g
de
d
##z
oder
wien
haben
dann
war
##st
bin
2014
via
amp
geht
immer
hier
frankfurt
##es
##te
uns
ihr
gibt
##ch
gegen
##p
alle
##f
team
hab
er
ab
zur
##on
morgen
werden
online
dfb
##c
doch
4
##de
keine
##0
sein
muss
##x
##b
m
facebook
5
gut
will
sehr
at
##1
neue
danke
wer
##in
faz
##ten
##w
bis
neues
alles
i
w
einer
video
beim
mein
foto
##v
https
##5
##3
##ing
##u
viel
##chen
##4
##2
meine
dir
##al
einem
##us
wo
eu
vom
u
macht
##lich
zeit
0
euch
the
##ig
bundesliga
gute
##ner
##ng
gerade
android
uhr
##ne
wm
kommt
durch
##el
a
##ter
welt
gepostet
einfach
unter
tag
kein
##8
##gen
##se
bitte
ohne
x
twitter
weil
diese
##um
##le
e
ganz
##ie
6
10
warum
androidgames
guten
##ge
o
8
##7
machen
c
##ungen
können
##an
##nd
##et
zwei
soll
##9
##rt
youtube
viele
##den
dich
apa
##ck
7
9
##ger
##iert
##j
##cht
##sch
ins
gt
v
##6
ots
live
n
30
also
wohl
menschen
deutschland
##ler
is
p
##at
24
##ll
z
##is
gleich
wurde
news
h
lt
b
spiel
wäre
weiter
ne
gesammelt
ob
denn
##or
20
##der
weg
l
liebe
ostern
##ur
##sen
unsere
q
neu
österreich
fussball
seit
gar
##re
nichts
eigentlich
##q
na
##as
nie
##it
neuen
besser
geld
selbst
oh
euro
##ce
##au
leider
endlich
f
ihre
leben
goldmünzen
##nen
google
##os
arminwolf
schön
##ss
##nt
##ke
fußball
super
erst
bist
neuer
##ve
##ut
##ts
y
##ft
wirklich
##ion
hast
##ze
##me
##he
##che
##lt
00
nacht
zurück
stadt
##ma
internet
##hen
##be
weiß
los
jahr
sollte
##sche
15
##ar
##ert
##ja
abend
12
frau
##ver
##na
etwas
j
##la
würde
sport
frauen
europa
14
damit
##ro
unser
##ben
19
##da
##ieren
april
her
kinder
dieses
##ber
##and
woche
steht
18
##mann
##gt
deutsche
##heit
tv
##do
bild
##lo
##to
##ste
nein
wiener
wegen
##fe
##rn
##il
wollen
g
echt
##hn
sicher
positiv
##hr
11
##isch
orf
hätte
##ien
##ff
sieht
r
##ht
##keit
##ia
net
sehen
sagen
kicker
grantscheam
kommen
##mm
nun
##ren
bewertet
##si
##her
tage
##ei
main
k
jahre
gerne
recht
buch
ipad
##ir
gehen
##cher
##ka
aneurerseite
michael
##no
##bar
berlin
tun
statt
dabei
##uf
##ns
sagt
##mer
go
dank
##ag
interview
erste
to
politik
finde
##tag
##pe
##hl
of
##zeit
##sten
##ed
re
drei
dazu
blog
mag
darf
##ungs
voll
könnte
##ko
##co
hin
hessen
genau
bilder
000
##ß
##ern
müssen
eh
dieser
##tt
##em
thema
ende
einmal
je
us
media
bahn
##go
##zi
##nz
##nk
##ker
##zu
##ich
meinen
it
austriadaily
##hi
no
frage
##und
meiner
hatte
13
##ik
web
##ha
seine
musik
halt
gestern
wahl
17
##ö
##nis
fast
##liche
jemand
haus
##fen
chef
ukraine
pro
##nn
##ers
zusammen
allen
teil
di
##ak
social
04
jahren
##th
##rs
mo
mai
austria
100
zwischen
mann
##mi
tages
herr
un
jo
##ot
##ster
##so
##oo
marketing
lange
22
zug
richtig
ex
16
apple
vielen
top
peter
paar
##zen
##ba
werde
##ay
##ab
ihn
andere
zimmer
wm2014
tor
##ra
wissen
ok
la
land
vielleicht
dafür
##14
##oe
##am
zeitung
##li
##kt
##ek
ö
##tz
##men
##ic
hoch
app
##ls
##ki
medien
do
vi
bu
brasilien
##eg
##berg
natürlich
leute
ha
frohe
##ds
vienna
on
##ue
##ol
kannst
bald
##ly
start
fest
fc
##ta
##ug
##ps
##io
infos
##un
##pa
##len
##ee
hu
##og
##ische
##cken
kurz
hypo
##schi
##ier
##ein
dein
##eb
diesen
##ser
wirtschaft
polizei
klar
ipadgames
frei
##ld
sommer
jeder
hr
geh
21
topnews
kultur
gemacht
##tion
##lle
##ea
lesen
eintracht
beste
##schen
##id
raus
geben
ersten
eines
bleibt
bayern
##hu
##ken
hinter
gi
wetter
lieber
fragen
##schaft
##rr
##per
##bo
wohnung
stimmt
50
##ty
##fi
waren
nix
gesehen
ar
##tor
##pp
##all
schnell
##di
##bs
lassen
23
##up
arbeit
##om
wünsche
ad
##rg
##bt
si
kopf
deine
##sst
##ation
stunden
##lu
##gel
platz
groß
eur
bad
##fu
##bel
sondern
##man
##icht
##ang
meinem
ju
essen
eher
ca
25
##ige
##burg
##ca
tweet
pa
grad
##ti
##ga
##ent
##ap
ma
frank
derstandardat
beginnt
auto
##ry
##ri
##ks
##ey
##aus
problem
presse
anderen
ko
fotos
eben
##ob
##ende
pe
oster
geburtstag
ben
##mo
veröffentlicht
per
große
##ul
##ment
##ln
lang
##land
job
fans
##ine
wochen
laut
ach
##uss
##igen
##ho
##art
wi
##ms
##im
oe
ausge
##jo
##gi
kunst
film
##fer
m2
dort
##va
##ad
russland
minuten
jobs
fra
besten
ag
##ü
##ssen
##haus
##age
vs
sv
stehen
he
glück
##ort
##ni
##ef
lu
freitag
##sel
##rm
##eren
übrigens
wochenende
welche
uni
sonst
mach
##su
##eu
unternehmen
letzten
diesem
zeigt
seinen
deutschen
ange
##mus
zukunft
su
gold
usa
sonntag
me
läuft
frankfurter
em
##za
##est
wenig
martin
fall
##är
##vo
##po
##bu
weniger
car
##lp
thomas
rein
en
best
##wien
##son
##bi
nächste
ffm
braucht
bar
##2014
##nf
fcbayern
bvb
bier
##ny
schönen
schöne
ort
finden
all
mi
artikel
##gu
##ep
##end
##aa
spaß
keinen
ka
findet
bekommen
##sse
##des
mail
aller
##tra
##rb
sei
lebens
anders
rechts
millionen
jeden
ihnen
hannover
##one
##los
sa
##pf
##ou
##lichen
##ib
##ckt
ober
and
##sa
##min
##gs
vorbei
trotzdem
süd
post
kaffee
info
alt
al
##vi
##rin
##net
ro
netz
gehört
##zz
##spiel
##platz
wann
kleine
ihren
hand
##hm
reise
bett
##é
wu
herz
bringt
##tät
##rei
##ok
ste
gewinnen
##kn
##ina
le
kunden
fronline
büro
##nger
sogar
möchte
kommentar
kind
geerntet
##nde
##ci
regierung
nahrungseinheiten
fertig
schau
rund
el
db
##gang
see
schreiben
not
kon
irgendwie
gra
glaub
eure
##ist
we
test
st
gibts
ger
gab
ball
art
##ismus
##innen
wär
mar
freuen
##wo
##pen
##buch
münchen
dinge
##ju
grüße
georg
ganze
davon
bank
200
02
##zt
##tter
##sti
stra
stellt
sta
real
putin
parlament
miss
hallo
fahr
bra
##pu
##ise
sollen
mio
dürfen
dr
dar
bundes
ba
##mal
##heim
ff
erfolg
daten
by
bildungs
alter
##wi
##uer
##tand
##cu
tipp
steuer
samstag
out
maeander
ga
##rk
##nden
##gg
##ain
##ac
van
pi
freunde
fahren
ber
##ya
##wa
##pt
##ae
unserer
trainer
spa
preis
mensch
lo
ht
hsv
energie
28
##kel
##ierung
##ah
warten
lässt
heißt
habt
eis
alex
##we
##llen
##je
##atz
##agen
sowas
krise
innen
hoffe
gefunden
ans
2013
##ßen
##rd
##erin
weitere
sky
ra
my
kla
grund
gel
direkt
##fm
up
training
sc
mu
iphone
gern
darmstadt
ak
##tte
##eit
ta
schauen
pra
pr
bleiben
##ür
##mb
##dd
övp
nächsten
naja
haha
gott
##00
##ure
##bank
spielen
sp
ni
neos
ke
jan
einige
##sz
##ru
##pi
##mt
##ml
wienerlinien
weit
unserem
spö
licht
ii
früh
##dt
##ct
##cker
##abe
werbung
tut
sieg
or
new
markt
früher
eigene
au
##mp
##du
wollte
wert
wasser
tu
spiele
seite
geschichte
for
##iti
##eln
##cke
##bre
##arbeit
stand
schlecht
san
ps
montag
hotel
##ye
##vor
##ris
sonne
oft
köln
heim
ernst
bus
arbeits
ah
##tsch
##lie
##ischen
##eck
##ale
zahlen
vo
ku
##äu
##sh
##hof
##dy
##bau
##ate
##ack
you
sag
letzte
fürs
##punkt
##mon
##mel
##ky
##kommen
##del
##aut
##ai
tolle
stefan
sofort
schwer
nochmal
kennt
handy
cha
##rat
##od
##ierte
partei
gu
event
design
bereits
arbeiten
##ys
##the
##que
##ies
vier
titel
startet
##zer
##gh
##fa
tri
piraten
mon
liegt
##tik
vergessen
ve
update
telekom
studie
nen
klein
kaum
be
##rf
##nge
##kl
##itz
##iger
##bb
wsjdeutschland
tipps
th
spielt
spar
nord
nceolzj5kl
fe
fa
andreas
##sm
##rer
##lung
##kan
##ian
unge
tweets
schreibt
rot
manchmal
bisher
##cs
##ast
west
geil
##wn
##ton
##sta
##preis
##ens
männer
lese
fünf
ent
blick
bildung
##än
##ä
##ven
##ini
##inger
##day
##ach
schul
neben
manche
anti
amazon
##zo
##kon
wa
ti
rad
programm
open
möglich
mac
gesagt
gen
find
bio
allem
aktuelle
03
##unter
##ngen
##lä
##igkeit
##det
##ari
wieso
kritik
km
kar
hamburg
fr
ele
40
##ox
##oni
##iv
##ii
##ex
setzt
seiner
ru
ros
josef
genug
fifa
china
ank
aktion
##sp
##politik
##ord
##oc
##lk
##ku
##ard
##af
wuboaihgva
pu
kra
großen
finanz
bi
antwort
##tze
##tes
##teil
##ons
##ble
##ant
za
ur
tro
sechsdreinuller
schi
red
ph
mt
lernen
jahres
guter
glaube
dachte
##xi
##tl
##pr
##ow
##kk
##igung
##fs
##cr
zwar
umge
port
lieben
kurier
fpö
egal
ch
bo
bau
album
##20
##tzen
##tu
##sha
##ov
##acht
xd
sollten
projekt
mr
milliarden
juni
ihm
31
##sd
##bri
##ans
suche
spieler
rum
nutzen
ir
fach
##ws
##sl
##nc
##mar
##ität
##gesch
##chte
zi
werbe
va
ts
op
kreuz
interessant
hol
feiert
as
29
##yo
##rp
##rl
##pl
##ip
##fc
##dl
##alt
ul
spiegel
schwarz
pol
mobile
kaufen
fb
cc
bekommt
##24
##use
##uk
##rad
##op
##fel
##by
sen
schirrmacher
pk
luft
hä
freund
derzeit
##10
##yn
##ui
##rc
##off
##cha
##ank
tote
sn
schaut
natur
min
junge
glauben
gesch
ed
cool
aktien
##np
##ffen
##enz
##eh
##cl
##ax
wichtig
toll
tau
seid
saison
protest
nu
nehmen
einzige
dieter
bisschen
26
##ße
##ub
##tur
##ssi
##nig
##lf
##kr
##fl
##eri
##ell
##ann
türkei
schr
sand
ho
fehler
drauf
club
alte
##tten
##ph
##of
##nder
##lh
##ass
sucht
software
service
pop
htt
fla
daniel
bel
angst
##ät
##ym
##tm
##tet
##stadt
##hh
##elle
wild
schlaf
ras
nimmt
ice
hält
grüne
don
ci
bevor
air
##xx
##stra
##ite
##gl
während
wirtschafts
verein
tod
starke
regen
playlist
niemand
mel
kü
idee
gratis
gemeinsam
flug
cas
90
##zug
##wei
##uni
##stein
##recht
##nb
##isten
##if
##die
##cc
wünschen
wort
tot
stellen
spqhf7bwkx
rmafcb
radio
pen
gmbh
gep
gefällt
bot
bestimmt
aktuell
airport
80
##ör
##tal
##rz
##res
##les
##iel
##elt
wohn
verkehrs
text
suchen
staats
schlafen
namen
lustig
heraus
gewinnt
flo
eins
con
bürger
bücher
35
##sf
##ppen
##nst
##dig
##bl
völlig
treffen
qua
play
pat
passt
ol
like
ging
geb
funktioniert
folgen
fehlt
fehlen
eier
ei
brand
##tel
##ili
ziemlich
zieht
wein
verb
trotz
stein
stadion
staat
solche
schu
moment
fo
day
bre
außer
06
##xt
##sver
##sc
##markt
##licher
##feld
##auf
##anz
tribez
po
paul
liga
gek
gast
frühstück
content
allein
##19
##kat
##chs
ö3
wunder
volks
sorry
res
politiker
personal
hoffentlich
halb
gru
birgitmathon
bew
##yl
##urg
##oli
##mu
##mmer
##ins
ä
ya
unterwegs
stunde
spi
ser
schule
schade
prozent
plan
passiert
os
meisten
leit
lauf
kenn
kam
juli
jugend
ihrer
gef
fan
demo
besch
45
##yer
##wä
##tv
##tin
##sy
##nung
##ide
##frei
##ere
überhaupt
versch
ver
tre
tom
tagen
salzburg
krim
komm
klingt
japan
gefühl
franz
drin
bon
alten
27
##werk
##scha
##ran
##line
##lat
##ec
##bare
wahr
rudifussi
mission
langsam
gestorben
flughafen
dis
deutsch
check
business
beide
##uz
##tische
##ppe
##mit
##iz
##ium
##gn
##fall
##ana
zo
seinem
scheint
rest
nieder
meinung
lust
kosten
hronline
hilfe
haft
gesucht
game
fi
falls
erklärt
digital
bas
ac
36
##zy
##zin
##sto
##scher
##plan
##nu
##minister
##err
##ati
wissenschaft
wen
teilen
te
sk
sex
rück
reden
party
mm
mittel
manager
lä
li
journalisten
indi
hans
ges
ganzen
dritte
bessere
aufs
af
60
##weise
##spe
##oti
##oa
##nr
##ene
##eil
##bach
verschw
urlaub
se
netzneutralität
lass
konnte
ing
hd
gehts
freu
form
folge
denken
anst
##yd
##oz
##gra
##ez
##erst
##ena
##ame
ziel
vfb
system
sge
schönes
nachrichten
lufthansa
kurze
kan
hören
hm
hi
gespräch
fit
einsatz
##san
##mat
##lte
##lin
##lei
##ive
##fo
##ech
##dn
österreichische
wahrscheinlich
sto
smartphone
sat
pf
löw
league
körper
erster
diskussion
bro
bm
abge
##welt
##tar
##piel
##ose
##ommen
##oi
##km
##kind
##hren
##gm
##aj
unglaublich
ttip
national
mutter
länder
links
let
landes
kurierat
jedes
hört
dax
bringen
aufge
arm
##vers
##sam
##ros
##org
##lz
##itt
##ehen
##con
##chef
##blog
##az
##av
##amt
##akt
wg
traum
star
schn
pc
one
markus
lichtenegger
ivi
imp
happy
grün
deutlich
chaos
brauchen
augen
account
99
##tage
##rv
##kal
##hilfe
##gabe
##ade
worte
windows
ki
karriere
cu
##yp
##usch
##sw
##stand
##sport
##scht
##ling
##gung
##ges
##fest
##essen
##edi
##chi
##bie
##ali
zdf
ww
sä
mittwoch
hof
gutes
gri
feuilleton
ev
dienstag
denen
##xe
##tri
##pol
##llt
##lli
##lick
##kre
##kra
##erung
##era
##enk
zer
willkommen
tour
tim
syrien
sub
sehe
schä
schlimm
sau
punkt
okay
max
laufen
kauf
jung
interessante
hor
end
denk
500
##99
##äge
##xo
##wahl
##ucht
##tig
##pre
##nm
##nach
##ffe
##erg
##chtig
zeigen
ze
time
standard
sonnen
privat
pm
park
märz
mitarbeiter
messe
kennen
heut
fü
darauf
can
anfang
##öl
##ua
##tk
##rte
##lr
##lb
##ita
##ika
##cy
wurden
unseren
trifft
sinn
prozess
pri
plus
nett
lin
hinzugefügt
hei
ham
geworden
gesetz
gelesen
führt
fordert
follower
fin
entdeckt
eltern
donnerstag
##wol
##ring
##pw
##eo
##df
##chl
##bus
volle
total
scho
pla
oben
madrid
hilft
halten
ep
champions
##wirtschaft
##rot
##mä
##fan
##ew
##dan
tatort
reicht
nummer
liste
keiner
dia
dandyliving
cr
chi
##vl
##tw
##td
##tat
##ron
##rkt
##oh
##och
##nw
##nommen
##lm
##king
##ehr
ye
wahnsinn
sw
straf
später
schluss
rock
profil
others
mode
lei
lahm
kö
krieg
gruene
gez
fle
fein
ersch
epi
entf
coole
ce
201
##60
##uh
##tan
##rä
##hol
vergleich
unbe
spannende
shi
reus
rei
präsident
pack
offen
nr
manuel
könnt
knapp
inter
hy
gedacht
ged
gabriel
finale
fair
eigenen
bzw
blut
bahia
amerika
##tern
##stre
##rik
##port
##nte
##nl
##inn
##hy
##eben
wach
vilbel
verd
stu
streik
spd
richtung
rau
par
pan
pal
nsa
nor
musste
mil
link
life
langen
kurs
klaus
gro
glückwunsch
englisch
dj
##tung
##rh
##ress
##orm
##nel
##hd
##berger
world
vorhersage
unver
tief
sou
selber
sachen
pre
partner
nah
konzert
jede
gedanken
ea
dies
del
david
chance
campo
apr

##zel
##zb
##ww
##wert
##van
##ust
##ums
##sb
##rts
##ric
##fach
##etzt
zweite
tra
tier
tat
sz
sitzt
sebastian
samsung
sam
russische
roman
raum
patrick
mist
microsoft
mahriah
les
krone
komplett
ib
heutigen
gg
geschrieben
fu
familien
ern
empf
denke
cat
black
bekannt
beitrag
##ud
##sho
##schutz
##nehmen
##ih
##har
##ele
wow
sch
mut
monat
mat
leid
leicht
ios
get
gere
ge
förder
fällt
folgt
erwartet
dran
daß
betr
ant
##01
##yi
##xh
##win
##tle
##tf
##nnen
##mw
##lauf
##hb
##fre
##fin
##eins
##eich
##ding
##chter
##ante
##agt
##aff
winter
wind
wichtige
typ
tsch
spricht
sim
sicherheits
schie
sal
ri
rekord
rap
probleme
ost
lol
komp
kal
ic
helfen
heinisch
har
fak
eröffnet
erstmal
elektro
einge
danach
##11
##yr
##yc
##xm
##uck
##sr
##ski
##rau
##lau
##lage
##ischer
##ionen
##fte
##dung
##dienst
##ara
##ange
zumindest
vors
verz
ton
sozial
scha
robert
ran
länger
ig
gre
entscheidung
chris
bericht
back
ausf
##40
##schn
##rsch
##ind
##fle
##fb
##fahrt
##eten
##erk
üb
zit
song
sache
reg
mö
lecker
könig
kap
kampf
hause
han
glawogger
gespannt
futurezoneat
dosb
dienst
cision
christian
burg
bull
bef
alp
aa
05
##ös
##vp
##ux
##ras
##pin
##nze
##ix
##ink
##ieg
##ess
##els
##einander
##bra
##bild
##austria
zust
wolfgang
willst
weiterhin
umfrage
tatsächlich
spo
seiten
schöner
schwe
schafft
runde
nic
nee
nationalmannschaft
music
mobil
lehrer
krank
irgendwann
handel
größte
erf
cdu
bie
banken
autor
##yt
##vg
##spr
##sn
##rate
##lten
##ller
##lit
##lim
##lem
##kc
##igt
##idi
##hs
##hei
##geb
##ekt
##dc
##app
wünscht
verk
sm
ruhe
prä
photo
liefer
lie
kommunikation
kirche
ihrem
hohe
hasse
halte
großer
getr
germany
ever
einf
daran
cap
brü
ai
70
##ön
##änder
##xa
##weg
##vs
##uch
##sin
##nten
##lü
##kg
##kas
##fn
##esch
##blatt
##bin
wei
vilinthril
videos
stuttgart
startup
soweit
sonder
smart
schuld
rede
punkte
profi
offenbar
merkel
meister
lou
kreis
kleinen
gilt
gewesen
geg
ep2014
entwicklung
dü
damals
blöd
01
##ück
##über
##yu
##xl
##ute
##ttel
##tic
##rw
##rag
##qu
##ple
##park
##mc
##kor
##hin
##eti
##cks
##bert
zeiten
wirfuerd
werk
wechsel
verdient
tha
seh
rat
müsste
mc
lösung
liegen
hü
gregor
gleiche
gas
freie
fre
frag
fm
fl
fett
fern
erhalten
doppel
börse
bä
bet
beiden
ass
angekommen
abs
##13
##08
##äss
##unden
##rti
##ont
##mn
##let
##hor
##handel
##ev
##ellen
##dw
##chten
zwi
wolf
weltweit
vorher
version
tur
sparen
sha
rechte
rai
prüf
mä
mari
mah
love
kat
jährige
journalismus
hinweis
hau
hahaha
gö
grünen
geist
darüber
beruf
bal
ausgabe
anderes
##04
##zw
##uen
##tb
##ott
##orf
##nh
##neu
##my
##las
##kin
##gr
##fr
##ender
##cf
##camp
##box
wald
verh
verg
traurig
präsentiert
nad
komme
kath
julia
ideen
hund
herzlichen
hell
gn
garten
etwa
ess
erdogan
dm
bl
außen
ahnung
##verbot
##vd
##uri
##tn
##tation
##rre
##pro
##lang
##iss
##gla
##gk
##gb
##fra
##back
##aten
win
wenigstens
verletzt
studio
stimmung
sprechen
show
schick
schein
run
reich
politische
philipp
offene
mädchen
mini
magazin
lös
lob
lieblings
leg
italien
il
hö
herzlich
herren
halbe
gesicht
falsche
erfolgreich
beispiel
##üh
##äte
##zc
##wj
##wald
##vu
##voll
##usi
##uche
##ska
##raum
##ohn
##ngs
##lg
##ji
##int
##este
##db
##bes
##bericht
##bas
zehn
vers
tür
sti
ski
rote
nachmittag
museum
kro
kl
katzen
fährt
feiern
familie
durchs
deshalb
cor
city
brauch
branche
ausl
aprilscherz
ang
abgeschlossen
##zg
##yf
##yb
##way
##sv
##smus
##rü
##rung
##ql
##prob
##nier
##news
##lw
##kh
##inde
##hoch
##hne
##gre
##erie
##eht
##ehmen
##cup
##ane
zahn
wolfsburg
verstehe
tw
strecke
straße
spindelegger
richtige
por
pl
müller
mh
mei
maria
linien
lesenswert
kos
klima
hätten
homo
heise
gew
gesund
gericht
focus
fahrt
extra
et
erneut
erm
einb
doener
cro
br
book
bir
besonders
32
##96
##ßt
##zk
##xs
##wb
##uu
##tre
##spi
##schau
##sbe
##rit
##rich
##ral
##offen
##nter
##mas
##its
##ife
##halten
##funk
##bw
##aw
wr
webstandardat
urteil
ums
rafaelbuchegger
produkt
oc
nutzer
nin
nat
model
linke
lam
kr
humor
handels
großartige
geschäfts
geheim
gefä
gefragt
filme
fer
extrem
elf
deiner
dd
boy
band
av
33
##üge
##wl
##tipp
##tas
##s7
##rste
##pfl
##pb
##mes
##kurs
##hw
##halt
##gie
##gar
##erge
##bk
##bh
##ball
##auer
##alten
##ahl
umwelt
tanz
strom
steh
sitz
schwere
schmidt
report
light
kollegen
internationale
helge
heil
fand
erz
edathy
echte
dy
dicke
daher
bb
anges
allgemeine
##80
##zs
##xy
##wt
##wh
##welle
##tem
##stu
##sk
##ossen
##ole
##nes
##mil
##lan
##ieb
##hlen
##haft
##gru
##gf
##gas
##fli
##beit
würd
versuche
verstehen
verst
unterstützung
stephan
steigt
socialmedia
simon
rob
rapid
personaldebatte
perfekte
perfekt
offizielle
ms
lar
kleiner
klasse
katze
kandidat
kab
ji
inkl
höhe
hatten
hart
gesellschaft
fä
fnp
fischer
fav
ezb
exklusiv
erfahrung
ehrlich
droht
demokratie
bru
bez
berg
aufstieg
anne
analyse
##98
##zl
##wohn
##wit
##wal
##sit
##rke
##reu
##pack
##ona
##nta
##meldung
##ille
##ial
##gend
##geld
##gan
##ebe
überf
verschl
verf
ung
u5
sup
spielstand
shooting
seo
schritt
schlechte
ren
pod
paris
möglichkeit
marke
kre
kno
kas
hör
hon
haupt
gl
fun
free
fh
fenster
eb
det
daily
big
bereich
angebot
07
##88
##30
##yw
##xn
##wk
##vie
##verst
##vc
##uelle
##system
##sterreich
##medi
##hrt
##hel
##hau
##geben
##eni
well
welcher
weiss
vertrauen
versa
vern
una
teuer
technik
sorgen
sicherheit
serie
sechs
schwarze
schreib
schla
ris
respekt
rele
opfer
nette
mün
minute
mau
mache
leichte
jur
international
hunde
himmel
forum
fix
festival
far
druck
dreh
diepressecom
deinen
bü
börsen
besuch
bea
absch
2015
##2p
##ätze
##yk
##yh
##vienna
##ule
##sor
##shi
##sg
##rma
##reich
##post
##pd
##part
##ore
##nken
##mpe
##mh
##lsch
##lose
##leich
##kle
##kla
##kam
##iff
##icher
##glich
##ete
##erte
##eitig
##daten
##chaft
##car
##arkt
##aden
zeichen
zahl
würden
wür
wd
urb
unwetter
uk
tore
ticker
sven
straßen
starten
soziale
schwein
sche
schal
pet
maß
lieb
kor
klo
kh
joachim
ip
industrie
hen
haare
geile
fli
fcb
falsch
entw
donau
def
daumen
böse
blockupy
berliner
##6u
##äh
##xc
##wer
##volle
##uv
##swert
##stä
##sge
##rum
##rea
##rdi
##pc
##nahmen
##lis
##kv
##kb
##ild
##frankfurt
##dra
##dler
##ces
##auto
##ator
##ani
##ande
zw
zb
xx
what
werner
ue
tru
telefon
süß
stro
stark
sem
selfie
sec
schüler
pha
office
meint
matthias
kä
kont
ker
ill
hubertsickinger
holt
gr
gm
gewalt
fris
flu
faymann
ewig
düsseldorf
dollar
debatte
brav
brauche
block
bereit
bem
beh
begonnen
ausschuss
alternative
abst
##ül
##trag
##sier
##rus
##ria
##oben
##nti
##nda
##kom
##kf
##enb
##elo
##ecke
##dh
##bea
##ano
##annt
wusste
weltk
warte
wahrheit
vorm
verr
umsatz
tommayereuropa
tan
stolz
sicht
sep
sel
seele
rep
rb
proasyl
opel
off
obwohl
night
michelreimon
matt
mainz
luminale
lan
kauft
hosek
gründe
glas
gewinne
gera
gehe
formel
deutschlands
bele
bee
anna
##ähl
##xu
##wm
##vm
##uren
##uc
##ret
##rch
##rand
##programm
##pm
##pap
##oy
##out
##onen
##nal
##mg
##mei
##ktion
##iu
##ipp
##hk
##gericht
##eff
##ede
##dg
##ath
##alis
zufrieden
zib2
werd
vorstellen
verspätung
unbedingt
twittern
thi
tas
strawnews
stell
spe
scoopix
schweiz
rh
mus
mehrenhauser
marc
linz
lied
lea
kleid
john
interesse
heiß
freut
fakten
europawahl
entsch
empfehlung
eil
dortmund
deswegen
cur
christoph
bs
bracro
bietet
aust
arme
alb
52
##wr
##verkehr
##tru
##stro
##sser
##sre
##sig
##qui
##pho
##met
##meister
##liga
##lier
##lge
##kd
##jk
##ick
##eli
##ehl
##egen
##cho
##born
##bn
##bli
##asse
##ao
##ander
wur
weltmeister
weh
wall
vorw
verwe
veranstaltung
u2
spät
slomka
setzen
schlag
schaffen
sah
regierungs
plakat
oli
metal
last
könnten
karl
kai
interessiert
glücklich
funktion
funk
frankreich
fil
experten
eva
eta
eröffnung
erreicht
emi
ehe
deutscher
cs
chmelar
anf
##xf
##wan
##uj
##tis
##ther
##ssel
##sli
##sla
##sein
##pper
##pers
##hä
##hf
##gy
##gef
##fz
##ett
##erl
##dia
##ches
##ahr
österreicher
zuge
zei
wären
wiesbaden
webinar
vorz
umst
tl
sun
story
sing
sendung
schönste
rom
rekordtorschütze
rechne
oma
offenbach
oevp
netzwerk
linie
lg
kredit
kino
jud
jam
iss
irgendwas
hmm
graz
gesp
general
gem
firmen
feuer
euer
erhält
erh
erde
ente
diesmal
conc
brief
besondere
aw
aut
ausstellung
37
150
##zeug
##zeitung
##xd
##tier
##stl
##star
##spo
##sma
##qf
##pel
##ote
##online
##nv
##ntr
##mr
##kü
##imi
##ile
##iche
##hler
##fit
##fh
##elb
##bei
##att
##are
wahlkampf
verpasst
unterschied
transfer
termin
süße
sitzen
regel
qf
pros
phil
papst
nämlich
mü
mos
mk
mindestens
massen
manu
ly
lisa
leistung
konzept
koch
informationen
immerhin
heutige
glo
generation
gekauft
gefallen
fuß
freude
freiheit
fol
fahrrad
erle
div
bur
bou
boo
baby
anh
72
55
43
300
##ält
##zj
##zimmer
##zig
##vy
##vic
##tä
##tro
##tele
##spiele
##sheim
##sem
##sab
##rische
##reg
##pri
##pn
##ora
##oq
##nne
##nj
##mmi
##kur
##kont
##jz
##jahr
##ino
##inen
##iere
##hc
##fic
##ffi
##ero
##erf
##eid
##dor
##dem
##cv
##bg
##asi
##ase
vol
trägt
tr
tooooor
tes
sterben
sonnige
shirt
schmi
rö
ret
qu
pfingst
normal
nas
mor
mitte
minister
met
men
leer
kri
kommission
klose
kle
klare
händ
großartig
fort
forschung
fas
fac
erstmals
ee
computer
bestellen
bek
ali
aktuellen
abse
54
3d
39
##ührt
##wy
##wv
##wat
##tlich
##tg
##run
##press
##pra
##oll
##mor
##lück
##halb
##gp
##gasse
##erv
##erm
##dier
##das
##bereich
##ache
österreichs
york
weber
wander
visi
verloren
verbindung
tritt
streit
stimmen
spr
schar
rennen
reisen
poste
papier
oliver
nö
meer
matstrolz
mark
mario
lern
leo
lachen
kun
kni
kit
ik
hum
hp
halbfinale
gal
frieden
fried
fliegen
dumm
cou
bj
betriebs
beschäftig
auftritt
att
argument
architekt
anl
angeblich
alleine
##3r
##äre
##zf
##tp
##tiv
##tit
##tha
##test
##sku
##sis
##schl
##sal
##ritt
##rier
##por
##log
##jp
##jn
##inh
##ied
##fd
##eur
##elf
##dq
##din
##dge
##com
##ats
worden
witz
wid
website
vp
verm
verkauft
verbre
urs
ub
trä
tablet
t3n
sh
schwach
schrift
rollen
riesen
rhein
pur
pok
pflege
ott
om
näher
nikoalm
musst
miro
mic
mer
mand
küche
iv
höchste
hundert
glaubt
geschenk
geschafft
gebe
freiburg
flüchtlinge
fleisch
fahrer
erd
ents
draußen
chelsea
brodnig
bock
baum
apo
angriff
achtung
##37
##25
##21
##ün
##vier
##uw
##uts
##ution
##tzi
##tour
##tisch
##ting
##swe
##rq
##par
##ove
##nner
##mmen
##kö
##kä
##kot
##ister
##eta
##ester
##echt
##don
##dm
##dk
##deck
##cq
##cia
##chu
##chri
##bung
##amo
##ace
wsj
verdienen
verbe
verantwort
vd
todes
teams
stern
ss
spieltag
shop
selten
schwimm
sap
sagte
plötzlich
pin
person
mitge
meinst
mad
luc
letztes
len
kostenlos
kirchen
kf
kenne
jun
inf
holen
hoffnung
high
hey
haut
grand
gewinn
geo
fie
eg
damen
cra
cloud
beweg
beschl
auftakt
anzeige
andi
acht
abh
##7u
##70
##23
##zm
##xp
##weite
##wart
##vertr
##verb
##set
##schule
##rom
##red
##rec
##qv
##qh
##olog
##old
##ogen
##nik
##mie
##liches
##lfe
##lba
##klu
##jg
##imm
##iba
##geg
##for
##fahren
##ej
##ear
##cer
##bit
##aktion
##ake
##aft
##adi
äh
zäh
zuhause
wollt
verge
vater
unten
tee
sterne
stelle
staffel
spitzen
schweizer
nä
morgens
may
lehr
lebt
lach
kühl
kontakt
konst
just
jm
jeannypart1
hashtag
gewitter
gesta
geschl
fürchte
frühlings
froh
florian
erfolgreiche
duell
dra
dor
din
denkt
dach
cre
cla
bezahlt
betrieb
apps
angel
anchvie
ada
42
##ähr
##zn
##xr
##wp
##vv
##ttl
##tellung
##sung
##ssp
##schein
##rochen
##rig
##pk
##pic
##pat
##ome
##nische
##mod
##mmel
##mk
##md
##lv
##lti
##liste
##lee
##lay
##kop
##kis
##isti
##issen
##iges
##ice
##hte
##hma
##hj
##fro
##fg
##dz
##dp
##dis
##cz
##bot
##bbe
##auss
##ations
zentral
zahlt
wirk
widers
warnt
vermutlich
trend
trau
trans
tja
tickets
ticket
ther
tennis
stau
sprache
rk
rente
raf
prim
pirat
pic
petition
pension
od
obs
mine
med
mcgeiz
lil
lad
kasse
kapital
islam
inner
hunger
heimat
guckt
gewinnspiel
geschäft
frisch
flas
fab
exp
erw
christ
che
bö
botschaft
bloß
bene
ard
anz
antworten
anschl
ana
allianz
abges
34
##8o
##7g
##6h
##64
##üs
##änd
##ächt
##zahl
##xz
##vt
##urt
##tti
##time
##stellung
##ssa
##qg
##projekt
##pfen
##opp
##olg
##ode
##nsch
##lla
##kes
##js
##jl
##ish
##iq
##info
##hme
##hg
##gd
##gc
##fk
##fahrer
##euer
##enden
##eee
##eche
##dre
##chau
##cb
##bun
##aga
übern
ändern
wl
wichtiger
wal
verdammt
u1
treib
tollen
ständig
spannend
sowieso
plattform
mitglieder
mf
letzter
kur
irgendwo
innovation
inform
heiße
gründer
gla
gehalt
fs
frühling
fru
freue
florianklenk
fernsehen
europaanders
etc
entscheiden
chancen
bt
boden
bewusst
berge
bein
beendet
ausr
ausb
aug
aufl
arsch
anspr
101
09
##9p
##86
##84
##zh
##wun
##tr
##start
##stag
##sko
##sinn
##riff
##pft
##ola
##nah
##marketing
##mani
##lde
##lar
##lad
##kz
##kultur
##komm
##ket
##kehr
##jx
##isierung
##ila
##iker
##ij
##icke
##iag
##hx
##helm
##gle
##führe
##frau
##form
##fj
##ente
##ema
##ela
##eise
##egt
##chm
##bol
##bm
##best
##bart
##arte
##arbeiten
##ags
überall
yo
wö
wirst
wiki
voller
versucht
verp
trailer
themen
sü
sym
strategie
store
sil
sho
schwan
ruf
regional
reform
pot
positive
poli
pause
osterfest
olympia
nachdem
mega
mannschaft
landaudaniel
kaiser
irre
informiert
heinz
gross
flugzeug
finanzier
erklären
edition
dringend
derstandard
chan
cent
castlez
blu
billig
bat
bart
bade
ate
andre
ama
afd
aerztezeitung
abgeb
a1
1000
08
##8x
##42
##zone
##zd
##wd
##ull
##uhr
##tzt
##str
##staat
##sar
##ruch
##qp
##ppi
##oss
##oj
##nü
##ndig
##mäßig
##mittel
##mf
##mens
##mai
##lc
##jy
##ifi
##hung
##gw
##gruppe
##gro
##gin
##geh
##flu
##fla
##finde
##enti
##eng
##dit
##blu
##bla
##band
##bad
##asch
##abs
österreichischen
ärger
wäh
weiße
wecker
vw
vfl
vermi
univers
unfall
technische
stück
sturm
sprach
schrei
schlägt
read
pizza
petra
paulo
oper
niemals
nachhaltig
mögliche
mittags
lind
lebensmittel
jens
immobilien
hose
hom
herzen
hein
has
gela
from
freundin
fragt
fitness
falter
ers
erl
erk
elke
ek
eigen
dt
ds
dom
deluxe
darum
box
bezirk
beu
besucher
bes
begriff
bed
baut
aussi
ast
anzu
abo
##89
##3b
##12
##öglich
##äs
##yz
##ysi
##wort
##wagen
##uo
##ula
##tür
##tc
##sq
##send
##see
##räg
##rtet
##riere
##rie
##our
##ori
##nisse
##macher
##lon
##linie
##kp
##jährige
##jv
##jd
##gv
##gst
##film
##fie
##erb
##erat
##eme
##eld
##eier
##eide
##dsch
##cal
##brand
##bp
##book
##besch
##bahn
##aube
##ative
##aster
öffentliche
zoo
wählen
wieviel
welches
wat
wahre
verlie
unterhalt
uner
thr
tak
tagesschau
stä
streich
sek
schw
scheiß
ruhig
rosen
richter
ric
public
probier
private
praxis
plä
pil
personen
pers
peinlich
omg
ny
nt
nachbar
multi
monate
milli
meta
mala
machst
legt
las
langweilig
künstler
konflikt
klin
klick
kamera
jedem
iw
hitze
herum
handball
gä
größer
good
gei
gefahren
franzisk
fordern
ey
ergebnis
erg
ede
comm
cle
camp
blue
beziehung
betroffen
bestätigt
berufs
benutz
bauma
asyl
ann
alkohol
##77
##1m
##ühl
##üb
##äche
##xj
##wur
##usa
##ult
##uber
##suche
##stoff
##sieg
##sehen
##rück
##reise
##rain
##qm
##qe
##pul
##ost
##orte
##oooo
##nie
##ndet
##nahme
##lichkeit
##kq
##kar
##jekt
##jan
##iter
##imme
##ill
##igi
##han
##fp
##ffm
##etz
##ese
##erp
##dx
##dri
##cor
##cki
##chel
##bv
##br
##bor
##bew
yu
wk
warn
warm
vortrag
vertrag
verle
unw
unterstützt
unterstützen
uf
tät
trenn
street
stic
steigen
sr
spri
schoko
sarahas
runter
roll
ring
rette
rec
ram
piloten
papa
oo
note
ned
nationalrat
nase
mund
mas
lun
lit
kostet
karte
karfreitag
justin
id
herrlich
hann
handeln
gü
gruppe
global
gesamte
gerät
genauso
gekl
fisch
digitale
dh
dauert
date
cup
bundesl
budget
brüssel
bom
besteht
auszu
ausst
aussage
aktie
199
##8k
##74
##3n
##3h
##üsse
##ünde
##üche
##ärt
##äng
##zp
##zogen
##zei
##weis
##vin
##ves
##sä
##stal
##ssu
##sle
##sgr
##same
##rj
##rben
##pass
##ochen
##nom
##ngt
##ndl
##nchen
##nbe
##name
##mq
##mpf
##may
##lke
##leu
##lam
##kj
##ings
##iden
##has
##habe
##fal
##ewe
##eut
##eter
##esse
##enc
##eiten
##dorf
##ders
##cm
##cj
##cat
##bä
##anlage
##ance
##ami
##ala
##ahme
##aaaa
zuv
vorschl
vorne
vie
vertr
versuch
verse
verkehr
ven
vegan
türkische
timeline
testen
temperature
son
sol
sohn
set
sea
schneide
schenk
s04
russ
rub
rj
rezept
renn
prot
original
og
nächstes
nik
mölzer
more
minde
leser
kämpfen
kraft
karten
kaputt
jugendliche
jaaaa
insta
inside
hoffen
hoff
held
halle
hach
gs
gefa
fire
eugen
erweiter
einsch
einges
dea
dagegen
col
coach
brun
bli
biss
bik
beweis
bestell
bekomme
begr
beck
ausg
aufges
aufgef
aufgabe
aha
aff
##5v
##3l
##2f
##2b
##22
##0r
##öse
##äm
##zis
##wor
##wg
##wf
##vk
##utz
##urs
##urf
##uq
##una
##twi
##tions
##tim
##stelle
##steh
##ssl
##sing
##sfo
##scho
##ref
##ram
##raf
##qb
##prin
##pq
##play
##pete
##partei
##pal
##orie
##ning
##nab
##mü
##mx
##maschine
##lug
##lq
##kter
##kli
##jh
##iii
##ichtet
##gers
##freund
##esi
##erei
##emp
##chul
##chei
##bis
##arzt
##ape
##anis
##als
##alen
##afr
##abend
überw
ähnlich
zuerst
wunsch
wtf
workshop
whatsapp
weißt
verw
vertrieb
vermögen
ui
trading
tometweetme
tm
tirol
tho
terror
termine
tech
sy
sur
stei
soz
sow
solange
siege
sg
schme
scheiße
roh
preise
pipermint98
nürnberg
nato
nachge
mol
ml
militär
md
lü
leipzig
leiden
laden
kw
korr
jesus
jc
investier
hus
home
hip
heiseonline
heims
hb
gewonnen
geste
gemü
gemein
gedr
führen
finger
finanzen
fig
feiertage
erwi
erinnert
ehren
dn
dg
dan
come
chr
bund
blogger
birgit
bekannte
beginn
bayer
base
apfel
48
38
##4z
##4b
##0m
##ören
##á
##zentrum
##yj
##yg
##xg
##wasser
##vr
##vj
##versi
##urd
##unkt
##ube
##tzung
##tweet
##tieren
##tie
##tch
##sur
##spa
##sion
##sie
##schä
##ors
##omb
##nke
##mj
##messe
##lig
##kw
##kun
##kte
##krieg
##karte
##jr
##itu
##ica
##hit
##halle
##gner
##ght
##fas
##etzung
##esen
##entin
##ect
##dige
##bro
##bern
##bd
##bc
##assen
##allen
##ail
zus
zucker
wesen
welchem
weise
vorh
viertel
vert
verbi
veg
tragen
tool
tolles
tobias
syn
still
schwi
schulz
schle
satz
rud
retweet
rablpeter
put
plakate
pink
np
now
nich
montags
mittlerweile
michel
merk
meist
meines
medizin
mama
lot
logi
leve
kreative
jak
jack
human
hc
hard
gue
groebchen
gratuliere
gest
georgprack
gelernt
fernseher
einse
doof
domini
dav
dauer
datenschutz
csu
cho
bruder
boa
berat
bedeutet
arg
appe
age
##81
##7s
##2c
##2a
##1p
##örung
##ärk
##äll
##äc
##zne
##ziel
##yx
##yv
##work
##weil
##uuu
##unt
##trä
##stoffe
##sj
##she
##seit
##schwe
##nor
##nat
##mot
##lyse
##lma
##lic
##jam
##issa
##ikat
##hv
##forsch
##ffer
##ette
##ersch
##eller
##eite
##druck
##dom
##dic
##dere
##cp
##bnis
##bauer
zun
webseite
vorge
unm
tin
techn
soc
skandal
sexy
seg
schwa
schneller
schmu
runtastic
riesig
promi
pressekonferenz
planet
persönlich
nd
nackt
müll
manchester
management
london
lohnt
lady
kleines
keller
jü
jungs
journalist
jon
jol
ia
htc
hil
gucken
green
grau
german
gene
gemeint
gekommen
gefährlich
gamestandard
friedrich
feine
feat
entwickler
enge
eishockey
einzig
einst
e3
dürfte
dennisbeck
couch
break
braun
bord
bege
bach
bab
az
angeli
anb
anal
allerdings
akademi
abwe
absolute
65
57
##9f
##7n
##76
##6b
##5h
##3c
##üt
##öhn
##zx
##zus
##wu
##vh
##vf
##tü
##tj
##tho
##tend
##technik
##setz
##rät
##ror
##rle
##rge
##rar
##rah
##qy
##pla
##pj
##pha
##pg
##opa
##ood
##omm
##odi
##nq
##nicht
##ministerin
##keiten
##journalis
##jm
##inst
##hlt
##gri
##garten
##für
##fäl
##fei
##fab
##een
##dition
##ata
##arn
##arm
##anti
##ams
##amm
##abl
öffi
ziehen
wunderbar
wenns
wars
vierte
verspr
verlängert
verhinder
umb
stü
starb
soli2401
snowden
situation
sco
scheiter
satire
sara
sant
quer
power
pas
org
nutz
nova
nf
nennt
nem
modell
mitten
mittag
misik
mg
melden
marcuswadsak
marco
magi
limburg
kämpf
kie
karas
jürgen
jähriger
jt
jp
jog
jma
jedenfalls
ih
hälfte
hochs
harald
guidotartarotti
gesundheit
gefahr
fühlt
fw
football
feed
europas
erstes
erleb
engl
einzel
einheit
dö
deren
deinem
cy
coc
cl
bri
bos
bor
bit
bezahl
beko
begrüß
beginnen
bauer
barcelona
baden
arbeitet
akt
abb
96
75
44
00uhr
##9m
##7c
##71
##5k
##45
##05
##üte
##ünd
##öd
##äst
##zieh
##zeiten
##zahle
##xk
##woche
##vb
##urr
##urb
##treffe
##tere
##stin
##stimm
##stellen
##rina
##ried
##rger
##qq
##pti
##pfe
##ous
##onal
##nds
##nacht
##mpfe
##mier
##lös
##lige
##liebe
##licht
##lation
##lag
##kx
##kos
##jw
##iß
##iva
##isi
##isches
##isb
##ions
##hessen
##ften
##enn
##enm
##dina
##atc
##aren
übernimmt
öko
zü
zig
xp
wobei
with
wienerzeitung
wechselt
vorsicht
vin
verlag
verkaufen
vergi
val
uh
täglich
theater
tebartz
stör
studien
spur
sportl
spei
sinnvoll
silber
she
schreck
schließt
schaden
rü
räum
roa
religion
region
ps4
poe
pflanzen
persönliche
neuwalcom
neo
nachts
müh
mrd
mov
mitglied
merc
mehrere
medi
marcoschreuder
längst
lau
ky
kom
kate
instagram
holz
gh
gewa
gesche
gebrauch
gall
flie
ergebnisse
ec
dos
dennoch
deb
datum
dani
danc
cont
berichtet
beda
aussch
august
anbiete
alexander
abschluss
able
abg
800
##87
##82
##66
##5g
##4d
##ührer
##ängt
##äg
##zip
##wee
##ware
##vq
##vid
##verla
##uld
##tsche
##tori
##teri
##studi
##straße
##sburg
##sberg
##rieg
##reis
##reiche
##rbe
##ragen
##qz
##px
##pv
##prä
##pak
##orn
##olle
##nar
##lust
##ltung
##lom
##logie
##lls
##lia
##legen
##leben
##kti
##karten
##jung
##jt
##inter
##igkeiten
##ias
##häus
##hon
##hig
##graph
##gew
##foto
##far
##fac
##ession
##eile
##dern
##chnitt
##bür
##berat
##beh
##arten
##ahn
##ado
öl
öffne
öf
züge
zweifel
work
wor
weine
wachstum
vl
verlos
verl
universität
unf
trink
trag
tabelle
such
städte
stream
sieben
shitstorm
schmeckt
sach
rückt
roland
richtigen
quartal
pub
profess
plant
old
nü
nerven
mrs
mot
moo
moderne
miete
meet
led
lage
kurt
krass
kostenlose
kons
koll
kern
justiz
jb
invest
integr
innsbruck
hs
how
hh
group
gp
gespielt
gerarm
genießen
gegens
gea
fus
flor
erwarten
erfr
entsteh
emotion
dsch
download
deme
cop
cli
bib
bewegung
bedeut
award
aufr
arbeitspl
antjeschrupp
andrea
anana
amts
##7h
##68
##67
##3v
##ürz
##üm
##öt
##österreich
##ziert
##yy
##wü
##weh
##vx
##vn
##verd
##urn
##umen
##ticke
##stan
##sive
##sicher
##sdi
##schmi
##sau
##resse
##rap
##rage
##rab
##ohl
##nnt
##ners
##nch
##nam
##mv
##musi
##management
##lly
##leit
##l6
##kräfte
##kro
##kampf
##jj
##jb
##ity
##inal
##ime
##hän
##hing
##hafte
##gz
##gespräch
##fri
##fol
##fern
##eq
##ella
##eim
##egel
##echn
##eal
##dach
##cx
##cw
##can
##brot
##beite
##beg
##ald
überwachung
älter
zeug
wächst
weltr
wahlen
vorschau
volker
verteidig
vermisst
verlässt
verlieren
user
unz
uniwave
tö
transp
tochter
theor
ten
tempo
tele
teilnehmer
stre
station
sports
sorgt
snow
sms
sende
seb
rust
rollt
rf
reihe
ray
rand
rac
quasi
prof
polizist
opti
oi
offiziell
nimm
mix
mittels
mitmachen
maxim
marken
mariog
lost
laun
ks
korrekt
kommenden
kof
kindern
key
kel
jungen
johannes
iwona
ink
information
if
horizont
het
hbf
grö
greif
gestri
geschmack
gemeinde
gele
gee
gebäude
fähr
fred
feld
feier
erscheint
ernsthaft
erinnerung
eri
einr
eco
ebay
dur
dunk
dru
dk
bv
borussia
bn
blaue
bla
besserung
bang
bahnhof
außerdem
ausland
ausger
ausbild
aufst
atl
arzt
anmelden
ani
andr
ahmadiyya
afrika
##9n
##7t
##7q
##53
##4c
##3g
##3d
##2k
##15
##0w
##0n
##öpf
##zq
##zle
##zeig
##yst
##ych
##xq
##wq
##vz
##video
##v3
##unft
##ufen
##tral
##streik
##stop
##spu
##sky
##sicht
##rid
##rek
##qx
##qn
##qa
##pru
##phi
##otte
##oma
##ock
##obe
##nha
##nati
##mut
##mati
##manager
##lor
##lex
##lev
##lek
##leis
##lac
##k1
##jc
##ize
##iw
##itzer
##ista
##ira
##iegen
##ieden
##gx
##gebu
##g1
##fx
##fw
##fried
##ffel
##eon
##ents
##ensi
##ennt
##eist
##ehn
##eder
##dr
##dat
##chw
##chner
##chlag
##bul
##bf
##anze
##ando
##aaa
überraschung
wä
wunderschön
wora
witzig
wichtigste
weiterge
wasch
vf
verwende
veru
ut
taxi
stärker
streng
stimme
steuern
stamm
spring
spende
spek
spanien
soo
sonjaablinger
siehst
siegt
seminar
schmerz
sar
saf
rüs
rtl
rou
richard
reine
rebe
psycho
provi
politikstandard
pir
pand
organis
obama
nutella
nerv
nennen
nehme
müde
mits
ls
liest
liebes
lia
legend
laur
kärnten
krä
kritisiert
kreativ
kommun
komisch
klassen
klappt
kick
jag
inhalt
histori
hir
highlight
hal
guck
grill
grenzen
gie
gespräche
geblo
garc
fuer
friedrichpendl
freejosef
fkaustriawien
fatmike182
fancyduke1
fallen
empfang
einsti
dre
demnächst
comp
commer
brenn
bleib
bienen
besucht
bauen
autos
aufbau
ap
antrag
abl
a3
##9h
##91
##83
##69
##5s
##4i
##3x
##32
##2g
##1x
##1q
##0a
##03
##ört
##zv
##zr
##zar
##xw
##verein
##u1
##train
##swa
##sum
##sprin
##spar
##schrift
##sba
##sag
##ruf
##rten
##rsta
##row
##rio
##qr
##qi
##pse
##pfer
##pfel
##ordnung
##ope
##nver
##nts
##ntra
##ness
##ley
##leitung
##leiter
##lak
##ktik
##koe
##kap
##izi
##ios
##imo
##igs
##hle
##hack
##gut
##gue
##gq
##gesetz
##gehen
##fy
##fv
##frist
##frage
##falls
##eve
##erz
##enst
##enha
##eine
##ean
##dro
##deutsche
##dert
##dels
##creme
##ckl
##chne
##bz
##brauch
##bil
##big
##bal
##bahnhof
##b1
##aro
##amp
##ahre
überleb
übe
öster
your
wunderbare
word
wirkt
wem
weis
wag
vg
verzichte
verme
verdacht
twittere
tel
südkorea
störung
späte
spin
sound
sos
sort
soeben
siehe
sichern
schiff
schieße
schicken
scherz
schaffe
sammelt
rä
ronaldo
regi
refer
puls
produktion
prinzip
pos
playstationde
parteien
osterfe
ostereier
ordentlich
nrw
normale
niederlage
negativ
nazi
nar
mou
motor
moskau
moderat
mitbe
ministeri
meinte
materi
mahn
lk
lebe
lab
kus
konzern
kna
kn
kiew
kata
jen
install
ideal
häuser
heiss
haushalt
hauptbahnhof
hansa
hacke
größten
gewe
gescha
gerhard
geniale
gegenüber
funktionieren
frische
fic
experi
esc
erfolgs
erb
empfehlen
einladung
ebook
durchge
dumme
dreht
doku
dip
devi
dat
christen
bk
bitter
bill
bia
bekl
ausges
aufre
america
abzu
absolut
95
62
47
##9l
##9e
##7y
##5m
##4g
##2t
##17
##0u
##0s
##09
##äft
##zbu
##yma
##xv
##wx
##wind
##vw
##uti
##under
##ulier
##uell
##traum
##tige
##thie
##ters
##tein
##team
##tanz
##svo
##such
##stellt
##steig
##shop
##seh
##sbo
##rari
##qw
##qt
##py
##prozess
##ppel
##pektive
##parad
##ops
##opo
##opf
##nx
##nna
##nit
##mensch
##luss
##lea
##latz
##ktur
##kraft
##kie
##itter
##ingen
##illa
##igend
##iell
##ichten
##ichen
##hü
##hnen
##gno
##geschichte
##gebi
##fig
##erli
##ekti
##dorfe
##dj
##dde
##cn
##check
##brun
##boy
##aufs
##amme
überblick
wh
westen
wende
vorar
vora
versteht
versp
verrückt
verliert
verbot
ua
trinken
tradition
tab
stru
stress
steve
stars
spru
special
spass
slo
ska
shar
senior
seltsam
schulen
schnit
schne
schaue
schatten
sao
rp
qualität
pö
produkte
prince
phant
passend
part
official
oe1
ns
nov
name
nachs
möchten
momentan
mcdonald
mayer
lim
laptop
kriege
kop
konkurren
kommst
klie
ket
kapit
irr
irgendwe
hot
heu
herb
goa
glä
geheimdienst
geha
gebu
gang
fut
fund
fri
freizeit
forts
food
fem
fass
fanhansa
europäische
erzählt
erkenntnis
erkenn
eric
erdbeben
entspannt
entschuldig
endstand
ehrenhauser
ego
earth
dz
datens
dahin
crowdfunding
cri
bw
bun
bmw
bewi
besuchen
besitz
beha
begeistert
bedroh
auss
ausk
aufstellung
aufsch
atom
atm
at6kznxyia
anwe
anre
anm
anleger
aktualisier
abf
89
46
0xjwwibuzn
##9x
##9i
##9g
##90
##6t
##6k
##5z
##5i
##4s
##1r
##02
##ó
##äp
##änger
##zing
##zil
##wie
##wein
##wede
##verkauf
##val
##uß
##une
##ulat
##ude
##uckt
##tscher
##tner
##theater
##tche
##szeit
##stor
##ssion
##ssch
##seite
##rter
##rechte
##rde
##prüf
##politi
##pie
##osten
##oste
##ordert
##omi
##ofe
##oer
##nsp
##nic
##nia
##ngr
##ndert
##morg
##mad
##lus
##laf
##kum
##iy
##ico
##hil
##hie
##hhh
##gier
##get
##gam
##ftig
##format
##finanz
##fertig
##fang
##exp
##etzen
##enberg
##ckel
##chal
##cd
##board
##ban
##aue
##arett
##akti
öh
zul
zuh
zauber
xtb
wirf
welc
weiteren
watch
wagen
vorteil
vorra
vorf
vogel
vir
versteh
verhandlung
verfolg
uv
ucl
twit
too
tol
ter
tank
stil
statistik
standort
spielb
sonnens
schweig
schoen
schloss
sav
sage
sab
rr
roller
rena
reinh
reif
regeln
realmadrid
reali
rathaus
rab
pfarrer
peterslaufblog
pap
pad
osterhasen
ord
ohr
nähe
nice
nes
mär
motiv
moni
mond
mitfahr
milch
mec
mb
marv
mart
logo
lis
lb14
lande
kriminal
kriegs
katha
kart
kampagne
jubiläum
jed
investi
inspir
inde
idiot
höre
hypoua
hub
hos
heuer
hel
hanno
hammer
gua
gewo
gesundheits
gent
gebü
galaxy
frühe
front
fritz
freien
fou
fore
final
feminis
feierabend
fabi
evolution
eska
ehr
dv
doppelt
ding
diep
cola
cm
claudiazettel
bud
boerse
blü
blau
bf
besetzt
bescheid
berater
beat
archi
angenehm
ami
akku
##9o
##97
##7a
##6z
##6p
##6c
##666
##50
##2n
##18
##0b
##örde
##älle
##äd
##ßb
##zwi
##zir
##zent
##zek
##xen
##x4
##x0
##würdig
##wz
##wissen
##wege
##web
##war
##ungel
##ump
##umm
##ufer
##tzl
##tx
##tta
##ted
##ständig
##ssig
##srat
##spla
##smin
##schul
##schuh
##sache
##rol
##report
##reib
##rank
##pz
##put
##oren
##mz
##mini
##maß
##lär
##leid
##lagen
##krit
##konzer
##kauf
##izier
##ike
##ierend
##iehen
##hos
##ham
##gliche
##gj
##gere
##führung
##fähig
##fun
##flo
##fisch
##eun
##enke
##elli
##eig
##eichne
##ehe
##eba
##dv
##dir
##deb
##chts
##chr
##chat
##blick
##arde
##anw
##akteur
##aha
##afte
##abv
än
zen
yeah
wozechner
wette
wenige
weder
vorstellung
vill
verändert
verwand
unterschreib
untersch
unr
united
unen
ulri
uber
türk
trainier
tar
tap
talk
tal
ster
state
spotify
soviel
sof
sir
sinne
serien
schickt
saa
rücks
rw
rit
rio
retten
reminder
recruitingservices
rauche
publikum
pressemitteilung
pres
pietstream
pfe
passieren
osterhase
neueste
nachwuchs
mör
mind
mass
lustige
lehermayr
kuh
klop
karinleitner1
kame
kalte
io
institut
infografik
ihres
holl
hauptsache
hall
gy
guid
grade
goethe
glücks
gleis
gib
gesto
gestalte
gesperrt
geschic
gegangen
geba
fro
fp
firma
feli
fed
exist
ert
err
einfache
drücke
dro
drag
dl
dialog
df
details
depp
dep
definitiv
dam
daheim
cd
caf
bz
burger
brau
blumen
ble
beteilig
beliebt
beaut
bast
avi
ausschl
ausgesch
ausgeb
auftr
arte
anruf
anon
anderer
alm
agentur
adi
abgesch
85
61
49
400
191
##94
##8l
##8j
##7k
##4y
##4t
##4n
##34
##0g
##ändig
##ände
##zuk
##zes
##wis
##wen
##weig
##var
##ungsa
##ttb
##tliche
##tionen
##thu
##tak
##ssteuer
##schü
##schra
##schafts
##sbr
##s1
##rwe
##rue
##rku
##richt
##rati
##qd
##produ
##plus
##pan
##orfer
##onst
##ond
##nä
##noe
##nni
##nli
##nba
##mme
##meier
##mark
##mand
##mac
##llig
##lj
##lese
##lass
##kse
##jos
##isiert
##ieß
##ident
##ichte
##hör
##hris
##hop
##hann
##hand
##gold
##gelt
##gei
##fox
##fak
##eth
##efr
##ees
##dliche
##bx
##beweg
##bab
##ary
##ars
##andr
##adt
überraschend
äußer
zweiter
zuk
zugang
zieh
yi
xing
wiblatt
who
welttag
waldwoelfin
vorstand
virtu
vice
veränder
verlassen
union
unges
umfa
toller
teuf
teiln
sympathi
sus
stärke
style
spitze
sot
sonnig
som
shopp
sev
schus
schatz
schaf
sale
rupprecht
rolle
revol
rettung
reichen
rav
rang
radfahre
quee
pw
prop
projekte
praktisch
podolski10
pleite
ostermontag
onlinevitalshop
oa
nötig
niedrig
nahe
mögen
must
msulzbacher
mitter
mikro
metro
menge
manfred
make
lukas
lew
leiter
kuchen
konferenz
kompeten
kommunalwahl
karin
kana
kac
jk
ignorier
hopp
hochzeit
hirn
hihi
hack
gäste
gin
gewählt
geplant
gelie
gelbe
gegner
games
führung
fuck
fremd
franc
fonds
festge
feri
fantas
eröffnen
erzählen
erreich
entdecken
ell
eisen
eigent
dri
dori
despell
deal
cross
cons
char
cel
call
bürgermeister
butt
bremen
breite
bp
bol
blogg
blitz
betra
bernd
berichten
beg
arena
anscheinend
anla
angeb
alfred
abstimm
abschied
abgel
98
##9t
##8y
##8b
##7z
##65
##5p
##5a
##56
##4u
##4a
##48
##41
##3w
##31
##2s
##1a
##ühren
##ährt
##zung
##zins
##zier
##zehn
##xb
##wirt
##vil
##veran
##v1
##uff
##tst
##trei
##timm
##text
##telle
##teg
##tba
##stat
##spro
##skr
##sex
##schlag
##sai
##rub
##roni
##ree
##rche
##rai
##piele
##owi
##oto
##oten
##orit
##oet
##obil
##nö
##note
##nho
##nce
##nan
##mir
##miet
##meter
##mba
##mals
##magazin
##koller
##kol
##itze
##iner
##inden
##ieh
##hz
##hse
##hq
##hp
##hofer
##hebe
##hause
##gänge
##gati
##furt
##ets
##ener
##enba
##e8
##deu
##demo
##craft
##chtl
##chni
##chinger
##cent
##cast
##bücher
##bee
##b2
##awe
##ausch
##arat
##aq
##angebot
öfter
ärzt
zählt
zwe
zeuge
yousitonmyspot
xs
xi
xb
wüs
wege
voran
view
vergeb
verboten
var
unternehmens
umso
tägliche
trainings
trai
tours
tok
swi
str
stiftung
sprech
soooo
sold
sempart
schwierig
schwester
schnap
schlu
schlechter
schan
sammel
sachs
rusentimuraksak
rm
rl
risiko
richt
qui
quelle
präsen
prob
pokernatic
plätze
plu
pie
philoponus
pfl
pate
ostukraine
osten
optimi
opposition
okto
ode
notwendig
nina
nike
mum
mount
millionär
mess
meldung
meisters
mehrheit
loc
liebste
leu
lege
learn
lasst
kritisch
klage
king
kim
kay
juhu
jl
jet
irak
internets
interessanter
hübsche
hoo
hie
helm
gv
großes
gratulation
golf
gewu
gestellt
gese
geru
gerd
genieß
genf
gefe
gebracht
fur
ft
forscher
fleißig
feiertag
farbe
explo
europe
erzie
erlaubt
erklär
erfüll
erfahren
endet
ehema
effzeh
ef
edi
eck
dw
dunkel
drück
drucke
drogen
dit
demonstra
dc
dai
cover
condor
cn
class
chip
chill
buechereiwien
bucht
bron
boe
blatt
biete
bibliothek
bezeichne
bestes
bauch
barc
bakhall
ausm
aufmerksam
audio
anlage
analys
ale
absatz
81
74
68
51
##9u
##93
##92
##7w
##73
##6x
##6a
##5o
##4p
##4o
##3s
##38
##36
##2m
##2d
##0v
##0t
##ültig
##ührung
##öffne
##äumt
##ßig
##zte
##zeile
##zeichen
##y7
##x3
##w8
##von
##vert
##versammlung
##uy
##uro
##unke
##uder
##uble
##tzte
##tai
##stück
##ständ
##stig
##spieler
##sdorf
##schuss
##schrei
##schla
##runde
##rman
##rhei
##rgen
##rfe
##quali
##qj
##prechen
##ppt
##plätze
##pieler
##pause
##order
##o9
##o1
##nau
##mö
##mmt
##mik
##mber
##machen
##leo
##kto
##key
##kandidat
##izie
##ilm
##ief
##hst
##hat
##hart
##grafi
##gli
##gehe
##fuss
##freunde
##fort
##fahr
##esti
##erha
##entw
##enh
##eger
##dte
##dische
##design
##city
##chung
##c6
##bru
##boe
##blo
##bili
##besuch
##bereit
##aun
##alter
zd
xaoticca
woo
wett
werder
waffen
wacke
vorle
vorber
verständ
vernunft
verfassungs
verfahren
unterschri
unters
umz
tz
typisch
trip
trends
tou
terrasse
tb
taschen
tarif
tanzen
szene
streite
stories
stef
stecken
sparkasse
sorg
sitze
silvi
schü
schma
schlechtes
schlan
sascha
ruft
rs
robot
rmv
remi
reit
reaktion
rate
rainer
quote
py
premier
pp
politi
philosophi
philip
pani
othmar
osterma
nutzung
neug
nag
nachricht
motto
morg
monaten
mez
maus
master
mars
maa
luxu
logistik
lock
liber
lib
late
künftig
kum
kotz
konf
komment
kinderg
jä
jub
js
jaa
inten
inhalte
inc
häufig
hängt
house
hobb
hit
heißen
hausbesetz
haupts
harry
handwerk
hamburger
hai
haftung
geä
genu
generell
gehirn
gehabt
gd
fälle
fröhlich
fotografie
follow
flag
finanzminister
faul
expe
esch
erstaunlich
erfu
enttäusch
entl
enthüll
endg
empör
einkauf
eink
eingel
eich
easter
drama
dp
doc
diskutieren
deze
dest
derby
defini
decke
dauern
data
dad
crowd
charm
cg
caro
bühne
bewerbung
betre
bernhard
bernabeu
beeindruck
beantworte
barbara
ausbau
auff
astro
asc
anton
anpfiff
anleihe
alic
alaba
aktivist
ae
abteil
abends
abende
77
73
600
58
41
198
##9b
##95
##8v
##8a
##7v
##7l
##6r
##6q
##6n
##6d
##61
##5q
##4r
##3z
##3k
##3f
##29
##16
##0x
##ütze
##ünftig
##öhnt
##í
##änkung
##änge
##äl
##zwe
##you
##yme
##yal
##wies
##wander
##wache
##vill
##verwa
##versch
##ungss
##ungsl
##unfall
##ume
##tun
##traße
##tq
##taus
##stische
##stau
##siert
##side
##semit
##sches
##schaften
##rö
##rto
##rbeite
##quar
##qk
##presse
##prechung
##ool
##ologie
##ohne
##nete
##ndi
##museum
##mun
##mpi
##miss
##mag
##macht
##m9
##m8
##lio
##lik
##lib
##lern
##leri
##lassen
##kus
##kai
##kaffee
##ign
##iga
##höre
##hre
##hnt
##hausen
##gek
##fü
##förderung
##freitag
##feren
##fehler
##eum
##erial
##erh
##elh
##eitet
##eda
##e5
##dbach
##dal
##chtet
##chnung
##chance
##cg
##bst
##boh
##betr
##berlin
##auft
##aufe
##atte
##atische
##ationen
##artikel
##arc
##ama
##air
##act
##aca
überzeugen
ökonom
zusch
zufällig
zerstör
xe
wünsch
wtyvdr7rfw
wohne
wissens
wiss
willi
wiederhol
white
wes
warst
vu
vorratsdatenspeicherung
vormittag
vorl
voi
vita
vik
verwir
verwenden
versteckt
verlang
uwk1ijpbiy
unfassbar
unabhängig
ulrikelunacek
turnier
tschahnschpange
trav
tisch
tiere
tg
texte
tausch
talent
steckt
stea
stammtisch
stad
spinne
spani
solidari
sola
socken
sli
single
signal
selbstver
schö
schließ
scheiss
sb
rücken
rie
repr
relati
reiche
reduzier
realität
rassist
ralf
pul
prin
pg
pflicht
pferd
perf
passe
pass
oz
nächster
noti
niveau
newsletter
neust
neid
nachdenk
mj
mitterlehner
misch
mexik
math
massi
marcel
map
mangel
made
lüg
leyrer
leuten
kriegt
kontrolle
klingel
kli
kc
jr
istanbul
islamis
ironi
indian
identi
ide
hölle
höhere
hohen
hl
hilf
helf
helene
haar
gän
guracell
gun
grü
griechenland
gottes
girl
geplante
geli
gelan
gb
gau
frie
format
forder
fn
flücht
februar
fdp
fashion
fad
europäischen
erinnern
entgegen
engag
energiewende
einw
eingest
eing
eindrücke
dusch
dream
cook
community
code
busse
bunte
brutal
browser
brasil
berichte
bedi
beam
baustelle
barbarakaufmann
automatis
auswä
aufzu
aufwa
arab
ansehen
anschauen
angeklagt
ane
amb
aktivi
abk
abi
71
69
59
250
2012
140
##8c
##7r
##78
##6w
##5x
##4l
##0k
##0c
##ündigt
##öff
##zeuge
##xel
##wö
##wski
##wochen
##wechsel
##wc
##verfa
##verband
##vention
##ura
##uli
##tto
##tren
##tadt
##steller
##ssin
##sne
##smann
##slos
##ske
##sges
##sat
##rolle
##rne
##reisen
##rechts
##präsident
##pos
##pau
##osen
##orno
##nkl
##nehmer
##ndung
##ndu
##mill
##mane
##m7
##lter
##liti
##lina
##kta
##kern
##kation
##juli
##istische
##inu
##inf
##industrie
##iler
##ight
##höh
##hund
##hrte
##hang
##haltung
##gramm
##girl
##gha
##geste
##gende
##geber
##gat
##felde
##esa
##erwa
##enze
##enste
##enr
##enheit
##enf
##ellung
##eigen
##ection
##echnet
##dus
##denken
##denk
##d2
##cri
##col
##chreib
##chic
##börse
##bringen
##bq
##bon
##bj
##bic
##betrieb
##bacher
##ausf
##arz
##anden
##alex
##aill
##ago
##afen
##a1
übers
überle
überg
öffentlich
zusätzlich
zuges
zuf
wom
wnothard
wand
vorbereitung
vll
verwaltung
verstanden
versta
verpass
verkl
verfügbar
vere
verbraucher
verar
unterst
unternehmer
unp
twi
träume
trauer
temp
technologi
summe
studi
stor
stock
spieltags
spam
smi
sla
sl
server
sd
scr
schönheit
schlä
schlimmer
schild
schaus
schalke
sca
sauer
rib
reserv
rel
reco
pun
präsidenten
präsentation
produz
prinze
premiere
pep
passw
passag
partie
paket
osterw
ostersonntag
oscar
ordnung
oljaalvir
nowkr
nh
next
nerd
nachr
nachl
mur
meldet
livestream
literat
lieg
kürz
käse
kult
kp
konte
konsequen
kolum
kg
karlsruhe
joe
inv
hütte
hers
head
hea
harte
günstig
gurke
grunde
geta
geni
gelegen
geiste
gegent
gefü
gat
gam
fühle
fängt
fsv
frlokal
französisch
folgende
flucht
fifaworldcup
fehl
farben
fam
etagenwohnung
erober
erha
entwickelt
einger
eig
drüber
down
disp
diskutiert
dieg
derw
danielmack
countdown
cos
com
christi
building
bric
binde
beruhig
befr
austrian
aufstehen
aufm
aufgeh
asp
arn
arbeiter
anwalt
anmeldung
angebote
albert
aktive
absolv
abscha
abr
abgeh
abfa
120
##9r
##9k
##8t
##8q
##8g
##7o
##7d
##72
##4q
##3a
##2l
##197
##ürfe
##ösung
##örte
##äufe
##ätz
##ären
##ädig
##ziehen
##zept
##willig
##west
##wach
##vio
##verha
##upp
##ungsm
##uge
##tus
##tum
##tritt
##ties
##stur
##stunde
##steuer
##stens
##stel
##staetter
##sitzung
##sber
##rieben
##rem
##reit
##radio
##qua
##q9
##q0
##pto
##pte
##prof
##prochen
##pop
##pirat
##pid
##passt
##pag
##osi
##olde
##ntu
##nstr
##nla
##nix
##nien
##nheim
##ngl
##modell
##mid
##m0
##lö
##lze
##logi
##legt
##laden
##jq
##journal
##jas
##jah
##ilen
##ießen
##iber
##hod
##grü
##gren
##gger
##gewi
##gesellschaft
##geist
##fung
##forum
##foo
##fonds
##fert
##fallen
##erten
##erfa
##erd
##enge
##eige
##edel
##e1
##dur
##dos
##dli
##dio
##dani
##club
##chutz
##chma
##chle
##c4
##bleib
##bilder
##apie
##anf
##amb
##alte
##ais
##abo
überlege
zy
zweiten
zie
yes
wähler
wollten
wolke
wohin
wirb
wink
whi
wenigen
weidenfeller
wandel
wan
vögel
vorauss
versteck
versicher
verschi
verkauf
verfüg
verbra
veran
verab
uu
unterl
unk
unglück
tödlich
tus
traf
teure
teste
support
superm
sug
stürm
studenten
stud
stoppt
stop
stirbt
status
staatsanwalt
spontan
spoe
spezie
spargel
skybuli
science
schüt
schönb
schwäche
schwierige
schutz
schulden
schuhe
schlage
sankt
sanier
rückb
rüb
rätsel
rip
rheinmain
revie
reno
reichsvikar
recherche
reagier
rams
rahmen
posi
platt
phone
osterg
offensichtlich
neur
neuh
nc
mys
mie
mercedes
mani
mab
lp
lon
lobbyi
liz
künst
kulturolympiade
kraut
krankenhaus
klub
kir
kip
kill
journ
isab
inz
intern
interakti
inte
int
homepage
hollein
holla
hoffenheim
herausge
heide
hap
haider
grundsätzlich
grundl
grafik
goldene
girls
gig
gewis
gerichts
genial
gelös
geheimnis
gebmoped
gebi
garantie
full
frohes
finkedouble
favoriten
fang
fail
experte
ewto
eth
erwachsen
erlebe
erhol
entz
entscheide
entfern
eng
eli
einsp
edu
däm
durcha
diskr
dicht
dev
ders
dari
corinna
coll
clo
cit
chorherr
chinesisch
chil
carsten
carlo
cal
bg
bezi
besi
beobacht
benötig
behörden
behand
auswe
aufsicht
aufregen
attack
asi
angesch
amerikanische
alarm
agen
acti
abn
20140
197
##9d
##8w
##8u
##8m
##8f
##8e
##7x
##75
##6l
##57
##4w
##4k
##4j
##3p
##2z
##28
##0l
##ütt
##öhung
##öger
##ätig
##züg
##ziergang
##z0
##wet
##werf
##werb
##ward
##w2
##vorsch
##vall
##uten
##uali
##tret
##too
##thi
##sü
##sze
##stri
##spru
##sos
##sfa
##schneider
##schme
##satz
##s2
##rze
##room
##roc
##ritten
##rill
##rien
##richtung
##richte
##reife
##rda
##rchie
##racht
##rac
##qs
##qo
##ppy
##pon
##pit
##phe
##pedi
##parlament
##orin
##orgung
##onn
##olt
##oft
##nwal
##nut
##num
##nkt
##nitt
##ngu
##misch
##meri
##mbi
##mberg
##m6
##lta
##lpe
##loge
##loch
##lif
##lche
##lande
##kunde
##kul
##kov
##klass
##jf
##ittel
##inc
##ilt
##iene
##ieben
##hru
##hoff
##hoe
##heimer
##gleich
##gierung
##geme
##gema
##g6
##flich
##f0
##eß
##extrem
##esp
##erne
##erken
##erbo
##ensch
##enp
##enla
##enen
##eigt
##eer
##ebl
##dru
##dreh
##dlin
##date
##cti
##chuss
##chsel
##chie
##bvb
##bran
##bib
##b3
##artige
##arti
##ark
##angs
##acker
##achten
##achi
überzeug
übersch
ös
änderung
zwan
zuw
zula
zins
ziele
zent
wurst
wlan
wil
wettbewerb
werte
weib
wec
wartet
wachsen
vette
vertreten
versprech
verpfl
verlust
verlei
verkaufs
verhandel
unterz
untersuchung
unterh
transparenz
tourist
toma
titan
tig
thin
taunus
stri
stopp
stellenan
steiger
spür
springe
speed
sonn
some
skra
sigi
sensation
sekunde
schwede
schokolade
schock
schli
schief
schei
sauber
salz
salat
route
rog
rin
ried
riech
rez
restaurant
regist
redaktion
rar
rabatt
qualitäts
qualif
qq
profilonline
portr
porrporr
poo
please
plays
plane
pisa
pfa
passi
para
ot
organisation
ohren
nop
nervt
nachher
nachf
männ
motivation
mord
mora
modern
mhufnagl
messen
ment
maurer
löwen
lädt
lächerlich
lorenz
lokal
lehre
lands
lai
krisen
kranken
kontro
kongress
kombi
kolleg
kohle
klä
kil
kids
katastroph
kalt
kad
junior
julian
jona
java
iran
investoren
intr
intelligente
insel
innovative
hurr
hintergrund
hint
hinau
him
hg
heilige
heftig
hef
hear
have
halbzeit
gün
gutsch
gus
grenze
glu
gescho
gerü
gering
gegeben
flow
flexib
fel
fckoeln
fal
euren
est
ermittlung
erhöht
erdbe
entweder
entlas
ela
eintr
einschr
eingetr
eindeutig
effizien
düringer
droh
dok
dik
digitalen
diesel
depr
demokr
dek
daneben
crea
comi
cheshmatpour
chemie
cac
bzö
britische
brit
bris
boss
bob
blo
bitcoin
bissl
bilde
bewert
beschwer
bereite
berech
beiträge
befinde
beein
bedingungen
beachte
basis
bam
automat
auswa
aussehen
ausdr
aufgr
aufgeb
audi
attraktiv
ath
asa
arnefellner
arbeitsl
arbeitgeber
antifa
angek
angeh
allt
akp
adresse
achte
achs
abstiegs
absti
abgeordnete
abenteuer
87
305
##9v
##8h
##6s
##6j
##5y
##5d
##4h
##4f
##2u
##2i
##2h
##2012
##1t
##1o
##1f
##1e
##0h
##ünscht
##ücht
##ößt
##ösen
##öf
##ätt
##änz
##zeichne
##yli
##x7
##wus
##wurm
##wick
##werte
##was
##walt
##vö
##vol
##vision
##vis
##vierte
##urlaub
##ulis
##tzer
##träge
##tol
##tiert
##tert
##tau
##t1
##sprecher
##sprache
##span
##sop
##sfre
##schr
##schm
##schle
##schied
##sac
##s8
##s6
##rän
##rup
##ruck
##rop
##rme
##rlich
##ringen
##richter
##reform
##rede
##rechn
##rak
##power
##plas
##ovi
##othe
##ocke
##oak
##nto
##nso
##novi
##nnung
##nfr
##nei
##nehm
##nage
##mung
##mst
##mina
##mau
##länd
##low
##lossen
##lop
##lisch
##lieb
##lbe
##lav
##l9
##kut
##kuch
##ktl
##krati
##kosten
##klebe
##kirch
##kant
##kame
##k6
##k0
##irl
##inte
##inat
##ihe
##ieder
##ics
##ichtung
##iat
##i0
##gründe
##goo
##gig
##geno
##geleg
##gefa
##füh
##fä
##fugees
##ffei
##f4
##erwe
##erger
##erer
##erati
##enta
##ellt
##echte
##drück
##dialog
##derma
##dent
##dar
##chwe
##chin
##cherung
##char
##brüc
##bildung
##bier
##bete
##bedi
##auc
##anj
##alle
##alf
überst
übersi
öffentlichkeit
öffentlichen
ägypte
zweit
zurückge
zukunfts
zaunbauer
yl
wol
wissenschaftl
wiens
welchen
wee
walte
vr
vorgestellt
vorb
viennese
verteil
verschiedene
vermisse
verlä
verletzung
vergangenheit
unterschiedlich
unit
unde
ultra
töt
tt
track
touris
thermitbomber
thal
swa
stie
stat
spiegelonline
speziali
sper
sozialde
sony
soli
skyliner
sink
singen
sign
sieger
sichere
screen
schütze
schätz
schlüss
schließen
schlei
sammlung
sami
sabine
reli
regie
rechnung
reche
rass
quiz
prognose
print
polen
pis
phänomen
physik
philo
pb
parad
page
ou
option
oliverscheiber1
oeg
normaler
nokia
neub
nachhi
muskel
mp
morning
monte
monster
migra
miet
michibuchinger
micha
mia
merkt
merke
mem
mathias
maschine
mannschafts
län
lor
lohn
locker
lek
leiste
lehn
lego
kündigt
kv
kunde
kroati
kris
koop
kompli
kollegin
koen
knu
kluge
kis
kirch
kersti
kehr
kee
karma
johanna
joerge
jenn
israel
insolven
höchst
hät
hype
hummels
hoeneß
hitler
historischer
hinge
hessische
hermann
herbert
help
heik
hehe
hasen
guardiola
gsi
griech
grie
gleichz
glat
gf
gewissen
gewi
getötet
geschäftsf
geschlossen
gesamt
genommen
gemeinsame
gedenk
gebor
ganzt
gage
führungs
führer
freundlich
fress
freis
frecklesfairy
frech
fraktion
fok
fliegt
first
falschen
europ
erwähn
erstell
erschein
ersatz
email
elis
einstell
einsteige
einiges
eindruck
ecke
ech
ebenso
drachen
deu
dag
consu
chart
chara
ceo
café
c3
bundestrainer
buches
buche
bring
brasilianisch
blond
blas
bischof
bewerbe
betreib
beso
besetz
belgi
befrei
bec
bear
bay
banane
ban
balkon
axel
ave
ausnahme
aufwä
aufklär
aufhör
aufgew
aufger
armen
ao
anfrage
akze
aj
aggressi
adl
absi
63
450
202
##9s
##7p
##5b
##55
##4e
##3t
##3i
##2r
##1v
##120
##0p
##0e
##⁹
##üss
##öck
##zellen
##z2
##yti
##yq
##ypt
##ymp
##wischen
##wirkung
##wetter
##wandel
##wag
##vorra
##vogt
##verle
##vat
##uter
##ustr
##urch
##undi
##umb
##uhe
##uchs
##uar
##ture
##tungs
##ttu
##tom
##tock
##tif
##thd
##term
##tens
##tellt
##tech
##tauch
##tato
##tags
##t7
##syr
##sx
##sthe
##stati
##stalte
##spre
##sfr
##service
##sekret
##sei
##scr
##saus
##s0
##runn
##rungs
##rsen
##rpr
##rli
##rinh
##ries
##rce
##platt
##pet
##oß
##owe
##oter
##osch
##oph
##ong
##omet
##olf
##nkr
##ney
##netz
##nec
##ndel
##n7
##montag
##mokrat
##melde
##loc
##llier
##live
##lings
##linge
##leston
##leistung
##lehr
##lech
##lberg
##kunst
##ktor
##krise
##kma
##ketball
##junkt
##jet
##jen
##ject
##issar
##inv
##indung
##iente
##huber
##hou
##hotel
##his
##hent
##heb
##haha
##hae
##h8
##h3
##grad
##gesa
##freud
##fotos
##fluss
##fizier
##finale
##ewa
##europ
##ermar
##erle
##erc
##erbe
##enth
##emi
##ement
##eisen
##eichen
##eib
##egal
##e4
##e2
##e0
##dwi
##due
##dea
##czek
##ckn
##chn
##cheln
##bü
##bruch
##bloc
##bewerb
##betre
##bers
##berl
##beck
##barke
##ausb
##atur
##anc
##aler
##aker
##ahe
übertrag
übert
übersetz
überrasch
überhol
ö1
zweck
zock
zivil
yoga
wunderschönen
wirtschaftlich
wille
werf
weich
wehr
walk
wai
waa
vorges
vorbild
vollkommen
vod
viola
veröffentli
verurteilt
vertre
versto
verhältnis
verhalten
vergangene
verdi
verbessert
vegane
vc
vall
unterr
unsich
univienna
unbekannt
umg
ty
tvt
trick
treffe
treff
tk
tiers
thes
telefonier
teilweise
tea
tausende
tatt
syri
syndikat
susann
suka
stög
studieren
straßenba
strasse
strand
stefanhechl
stan
spit
spiels
spezi
sperre
skysport
sko
sis
sinnlos
sili
shak
session
sender
selbstbe
selb
schür
schwarzen
schiri
schieß
romy
riegler
retweete
republik
reh
pün
punkten
prog
profiti
praktika
plastik
patr
parallel
over
orient
orange
oliverastajic
nomin
nil
nikol
nicol
network
nenn
neh
neg
nedo04
neb
nan
nachfo
n0
müss
muß
mq
moz
modu
mike
mik
meter
meh
matur
maro
marat
mak
lui
look
livetick
liebt
lena
leite
leiser
law
lauter
lager
lag
lac
l4
kürze
kuli
krem
kostenfrei
konze
konsum
konkre
koa
knack
kleinst
klassisch
kinderp
kategorie
kars
jüngst
jähr
jose
jemanden
jazz
irgendein
interviews
interessier
intelligenz
initiative
infl
imzentr
impre
immo
imag
hübsch
hänge
hundst
hoc
herrlarbig
herausforderung
hem
heidel
hebt
heartb
haz
hass
harb
hannestschuertz
hango
günstige
gw
größ
gruppen
groko
graue
goe
gewerkschaft
gesti
gesetze
geme
gehöre
gehol
fühlen
fö
fuchs
frühjahr
freihandel
flüge
finn
feuerw
fernseh
fee
evangelisch
eröffnungs
erwart
erkenne
entspann
eman
elst
einzu
einzeln
eintritt
einsparung
einla
einkaufen
eingeb
einführ
effekt
ecc
ebe
eaglepowder
dvd
drohne
dresd
domi
dol
dokumen
dist
digiom
diet
diestandard
dieb
dick
dero
dankeschön
dame
cyb
contr
claudi
ck
chrom
cb
burn
bundestag
bundesre
bundesp
brä
brille
brigitte
brem
braunsch
brauchst
boat
bloge
bim
bilanz
beschreib
berühmt
berni
belas
behinder
behaupt
begl
begeg
autom
autofahre
autoba
ausz
australi
ausse
aufnah
aufer
aufb
assist
armenien
aneu
amo
alu
allg
alg
aktiv
affäre
adve
76
700
##9z
##9a
##6y
##6v
##6m
##6g
##5j
##2000
##1c
##à
##ç
##è
##ã
##²
##ğ
##ي
##ا
##о
##р
##ø
##â
##т
##и
##ن
##ب
##α
##ı
##ć
##с
##а
##ú
##ï
##ل
##ф
##б
##š
##ś
##ő
##û
##ê
##ლ
##ಠ
##و
##ه
##ف
##ص
##ر
##ح
##ё
##у
##м
##к
##з
##е
##π
##λ
##γ
##ί
##ž
##ř
##ù
##ô
##ñ
##ë
##å
##½
##益
##ツ
##ᴗ
##ٹ
##م
##ك
##ع
##ذ
##ث
##я
##э
##ь
##ы
##ч
##ц
##х
##н
##ж
##д
##г
##ώ
##ω
##τ
##σ
##ς
##ρ
##ο
##ν
##κ
##η
##ε
##ή
##ǀ
##ű
##ŕ
##ę
##ė
##ē
##ò
##î
##¾
##³
##~
##}
##|
##{
##`
##^
##]
##\
##[
##U
##S
##P
##O
##N
##M
##L
##K
##E
##D
##C
##A
##@
##?
##>
##=
##<
##;
##:
##/
##.
##-
##,
##+
##*
##)
##(
##'
##&
##%
##$
###
##"
##!
σ
з
м
<
P
C
ü
η
с
ذ
д
г
ا
ê
э
ς
š
M
б
_
{
ц
í
\
`
ğ
ث
ę
ك
%
π
ь
)
-
]
ű
τ
ы
ل
ж
р
î
ǀ
|
у
à
γ
ο
ლ
K
~
"
ي
т
ò
ć
ù
N
я
ø
ó
а
ف
益
:
ᴗ
é
λ
+
>
ή
ř
?
о
¾
ž
(
ί
A
ô
ç
²
и
ï
ē
}
³
S
U
ن
ٹ
½
ρ
/
@
#
â
;
ν
ő
ع
⁹
E
ح
ё
ώ
&
х
ツ
á
е
ı
ب
ŕ
D
κ
$
=
ė
к
.
^
ś
ß
و
*
è
ú
!
ñ
ã
ω
ص
ë
,
ه
û
α
م
ф
ε
O
н
'
å
ಠ
L
ر
ч
[
