[PAD]
[EOS]
[UNK]
[CLS]
[SEP]
[MASK]
t
http
co
die
der
rt
ich
und
in
##n
das
##e
ist
##s
##en
##t
für
mit
ein
nicht
auf
von
im
es
##r
zu
den
##er
auch
so
bei
wir
sie
was
noch
eine
aber
an
habe
am
wie
aus
hat
sich
dem
du
##ung
##a
man
heute
jetzt
sind
nur
ja
nach
als
1
##l
zum
mal
wird
schon
s
über
mir
des
2
wenn
um
da
##d
##m
vor
wieder
kann
##o
##i
mehr
dass
3
mich
einen
##y
d
oder
haben
dann
##k
wien
war
de
2014
bin
via
amp
##g
geht
immer
hier
frankfurt
ihr
gibt
##h
uns
gegen
alle
team
zur
er
hab
morgen
werden
##es
##z
dfb
online
ab
doch
4
sein
muss
facebook
keine
will
gut
##st
at
sehr
wer
danke
neue
m
faz
neues
alles
einer
beim
5
mein
bis
video
##de
https
foto
i
##in
##te
##0
##ing
##ch
##p
meine
viel
einem
w
##f
vom
##on
##c
0
euch
dir
macht
##ten
bundesliga
gute
wo
gerade
android
uhr
wm
##x
kommt
durch
##b
the
##u
eu
gepostet
u
einfach
tag
kein
zeit
##v
ohne
unter
a
ganz
diese
bitte
twitter
10
warum
welt
androidgames
guten
##w
##chen
machen
weil
##ig
##5
##3
##se
können
x
##us
##ng
##ner
##lich
zwei
youtube
dich
apa
##ne
e
##4
soll
##2
6
gt
live
ots
30
##1
also
##um
##ter
viele
wohl
deutschland
24
c
7
gleich
o
wurde
news
##le
lt
##el
spiel
wäre
##or
gesammelt
menschen
8
##den
##ge
##rt
is
20
liebe
##an
##8
weiter
##ck
ostern
ins
9
##ler
österreich
fussball
seit
ob
##et
weg
denn
##ie
nichts
eigentlich
##ungen
##7
nie
neuen
ne
unsere
besser
gar
p
##at
leider
endlich
schön
selbst
ihre
goldmünzen
google
arminwolf
super
##9
##al
geld
fußball
##gen
bist
##mann
oh
neuer
euro
na
h
z
wirklich
##ke
leben
hast
abend
##nd
00
##sch
zurück
internet
weiß
los
jahr
erst
##ce
b
15
v
##ft
n
etwas
##ste
##iert
sport
frauen
kinder
14
damit
unser
nacht
##cht
stadt
april
##ss
##ger
q
dieses
12
frau
woche
steht
18
würde
y
tv
bild
##os
nein
##as
wegen
f
##is
europa
wollen
echt
##lt
positiv
11
orf
##q
##rn
##sche
sieht
neu
g
##6
##j
##hen
sollte
net
##and
##ll
sagen
kicker
grantscheam
##au
nun
##nt
##ia
bewertet
tage
wiener
main
jahre
gerne
##der
buch
ipad
##sen
gehen
erste
kommen
eh
aneurerseite
##ro
michael
hätte
berlin
statt
dabei
sagt
##ien
dank
interview
sicher
politik
of
##ur
dazu
sehen
darf
deutsche
##ben
könnte
##ts
##bar
recht
000
##ag
müssen
dieser
thema
ende
einmal
media
bahn
##nen
##ert
meinen
austriadaily
##re
tun
frage
meiner
hatte
13
##isch
##ion
##ja
19
##che
seine
halt
gestern
##ut
##tt
17
fast
jemand
finde
ukraine
##ma
##ff
allen
##gt
social
l
04
jahren
austria
##ein
zwischen
bilder
##da
ok
##ieren
hessen
genau
marketing
22
##pa
zug
richtig
r
blog
16
us
apple
vielen
paar
##me
##he
werde
ö
to
ihn
hin
andere
zimmer
wm2014
wahl
wissen
##ich
drei
vielleicht
dafür
chef
##sten
app
##ed
her
##ht
##heit
##it
##ar
mag
##ve
brasilien
##th
##her
mai
##ern
leute
haus
frohe
100
##zeit
##ra
##ka
##ik
vienna
tages
##ki
##ent
kannst
bald
##il
wirtschaft
start
lange
fc
##la
j
##fe
mann
infos
##ko
teil
##si
top
hypo
it
dein
voll
tor
diesen
##ly
##keit
zeitung
web
polizei
oster
klar
ipadgames
##tag
##ster
##go
##mer
jeder
do
21
##ver
##em
topnews
land
gemacht
##ren
musik
lesen
eintracht
geben
ersten
eines
bu
bleibt
bayern
##ns
##na
##ß
##nk
##ang
##len
wetter
lieber
fragen
##tz
stimmt
50
waren
nix
natürlich
gesehen
##ken
auto
##ic
lassen
23
##ber
wünsche
medien
##rs
##pe
deine
##igen
stunden
kurz
glück
##ker
##be
platz
peter
eur
bad
##fen
##ca
sondern
meinem
essen
eher
25
##hr
##berg
##land
tweet
grad
##hn
geh
frank
derstandardat
beginnt
##to
##lo
kultur
fra
fest
anderen
##ers
##di
fotos
##kt
##ei
veröffentlicht
große
##ld
##cher
raus
lang
ex
##ation
##age
uni
job
hr
hoch
fans
##ze
zusammen
wochen
##tion
sommer
beste
##ry
##hl
schnell
##lle
##bel
pro
film
##up
##ln
wohnung
m2
hinter
dort
##liche
russland
minuten
jobs
di
besten
all
vs
stehen
kopf
##nn
##fa
##do
freitag
##no
##jo
##icht
##ba
übrigens
wochenende
welche
sonst
mach
##ische
unternehmen
letzten
je
diesem
##zi
##za
##ine
##ee
zeigt
seinen
k
herr
deutschen
zukunft
gold
##ab
usa
läuft
frankfurter
##zen
##ol
##mm
wenig
per
fall
##ks
##ir
weniger
##ser
##nz
problem
##bt
nächste
me
ffm
braucht
##ay
info
go
fcbayern
bvb
bier
ach
schönen
schöne
no
finden
##ta
ma
artikel
##mel
spaß
keinen
findet
bekommen
##nis
##all
##ti
##oe
sei
geburtstag
anders
schau
millionen
jeden
ihnen
hannover
##per
##nde
##mus
##mi
eben
##ot
##oo
##haus
jo
dr
##zu
##auf
##ad
vorbei
trotzdem
kaffee
früh
##wien
##innen
gehört
##rg
##ell
wann
kleine
ihren
##ls
##ky
real
##ier
##end
re
bringt
arbeit
##gi
la
gewinnen
##mp
##bo
fronline
büro
bar
##lu
sogar
möchte
le
kommentar
geerntet
##ungs
##un
sv
sonntag
regierung
on
nahrungseinheiten
fertig
##uf
##ssen
##ri
##ige
##id
##ak
mo
martin
ger
db
##son
##man
thomas
sky
schreiben
irgendwie
groß
glaub
eure
##ina
gibts
frei
##är
##ul
##schaft
##co
##ah
freuen
##ga
##cken
münchen
laut
en
##ue
##eb
grüße
ganze
davon
ca
##ö
##ni
##mal
##ist
stellt
putin
hallo
##ys
##ende
##burg
##art
sollen
mio
dürfen
aller
##zt
##schen
##rat
##om
ha
ff
erfolg
daten
by
##ug
##spiel
##rf
##fu
oe
maeander
ag
##ms
van
lebens
fahren
##vo
##ps
##mt
##men
##llen
unserer
trainer
preis
ht
hsv
au
28
warten
netz
lässt
heißt
habt
alt
##14
##zer
##gs
##eg
sowas
mail
kunst
krise
hoffe
gefunden
2013
##ty
##of
##nden
weitere
post
fe
direkt
##rm
##min
##ds
##bi
##ale
training
iphone
gern
darmstadt
##zz
##pp
##est
schauen
pr
bleiben
bett
##2014
##ny
##ant
övp
nächsten
naja
haha
gott
##lp
##hu
un
spielen
neos
kunden
herz
##ep
##ek
wienerlinien
unserem
spö
##ob
##ha
werbung
tut
sieg
rein
new
markt
kind
##é
##platz
wollte
wasser
tu
spiele
seite
not
ju
##ho
schlecht
rund
montag
hu
sonne
see
oft
köln
gab
ernst
##op
##gel
##gang
zahlen
pa
arbeits
##eit
san
my
letzte
grund
fürs
##li
##eren
##bs
tolle
st
sofort
nochmal
kennt
handy
art
partei
ka
bereits
bank
arbeiten
##ä
##pi
##los
vier
titel
startet
or
ke
al
##pf
##dt
##agen
te
steuer
piraten
liegt
dinge
##od
##des
vergessen
test
telekom
studie
pi
nen
lo
kaum
02
##ju
##buch
wsjdeutschland
we
tipps
spielt
samstag
sa
nceolzj5kl
energie
andreas
##pen
##inger
wichtig
tweets
rot
rechts
ort
ober
manchmal
em
eis
bra
bisher
##ton
##po
##iv
##hi
parlament
out
geil
and
alex
##uss
##one
##mo
##ive
##du
##ble
tipp
männer
blick
bildung
##ya
##rei
##gl
##ard
presse
mi
manche
amazon
##ens
##ea
open
möglich
gesagt
freunde
find
bio
allem
aktuelle
03
##va
##lichen
##heim
##dl
##ct
##bl
wieso
ku
kritik
km
hamburg
40
##ör
##ät
##sa
##ort
##kel
##fer
##ci
##ae
setzt
seiner
reise
ki
innen
hand
genug
fifa
aktion
##sam
##rr
##og
##dy
wuboaihgva
min
großen
finanz
##tte
##sel
##hof
##ey
##bu
up
sechsdreinuller
mt
lernen
jahres
guter
glaube
dachte
##xx
##so
##rd
##rb
##eu
zwar
lieben
kurier
geb
fpö
el
egal
album
##we
##tor
##markt
##gg
##am
xd
stellen
sp
sollten
ps
projekt
mr
milliarden
lu
juni
ihm
früher
31
##sse
##rl
##ies
suche
spieler
rum
rad
nutzen
geschichte
##ü
##mon
##ierung
##chi
interessant
heraus
feiert
einige
ed
ad
29
##ßen
##sti
##lk
##ex
##bau
##ball
##aa
weit
spiegel
schwarz
sag
mobile
kaufen
fr
fb
cc
bus
bekommt
##tar
##pt
##isten
##io
##ind
##ian
##cu
stand
se
schirrmacher
pk
luft
licht
ii
freund
derzeit
##uch
##sm
##ere
süd
schaut
natur
junge
hotel
glauben
cool
aktien
##ment
wu
tom
toll
seid
saison
nehmen
dieter
design
bisschen
26
##ou
##les
wert
türkei
tri
ra
pe
fehler
drauf
demo
club
ball
alte
##je
##elt
##ach
sucht
su
software
service
ko
klein
htt
hans
haft
angst
alter
##tra
##rin
##ph
##gu
##bach
wär
stefan
schlaf
nimmt
ice
hält
heim
grüne
don
##zo
##ym
##weise
##und
##tu
##res
##mb
##anz
während
tod
red
playlist
idee
gratis
gemeinsam
flug
best
aufs
90
##10
##ye
##ehen
##cker
wünschen
wort
tot
spqhf7bwkx
rmafcb
radio
kosten
gmbh
gefällt
for
bot
be
aktuell
ak
airport
80
##su
##lz
##aus
text
suchen
schlafen
miss
lustig
gewinnt
fünf
bürger
bücher
ba
as
##yn
##wo
##wahl
##pl
##igkeit
##fm
völlig
treffen
schwer
schul
passt
funktioniert
folgen
fehlt
event
eier
##tre
##pro
##nb
##lf
##ip
##erin
##eln
##ef
##del
ziemlich
zieht
wein
update
trotz
stadion
schreibt
moment
day
außer
06
##vor
##sha
##san
##ml
tribez
paul
neben
liga
georg
gast
frühstück
allein
200
##ws
##rk
##line
##ap
ö3
wa
sorry
politiker
personal
mensch
mac
hoffentlich
halb
birgitmathon
##vi
##tin
##sh
##lung
##eck
unterwegs
stunde
schule
schade
prozent
passiert
os
li
kam
juli
jugend
ihrer
ho
ange
45
##ku
##ischen
##fall
##eo
##cs
überhaupt
ur
ums
tagen
ta
stu
klingt
hi
bon
anti
alten
27
##wi
##werk
##tzen
##rie
##ommen
##ckt
##aut
##ain
##ai
##ac
wahr
sc
rudifussi
mä
mission
langsam
gestorben
fu
flughafen
deutsch
check
car
business
##äu
##xt
##xi
##sp
##oh
##net
seinem
scheint
lust
hronline
hilfe
gesucht
game
fan
falls
erklärt
china
36
##wa
##ub
##pr
##kk
##eh
##bb
wissenschaft
teilen
reden
programm
party
manager
journalisten
ganzen
60
##nf
##hm
th
play
netzneutralität
krieg
gehts
freu
folge
fach
denken
antwort
##recht
##ii
##if
##ez
##cke
##ate
##ans
##alten
vfb
system
sge
schönes
pol
nachrichten
lufthansa
kreuz
kra
hören
hm
gespräch
einsatz
eigene
ans
##yt
##yp
##xo
##tter
##tal
##schi
##punkt
##ins
##iger
##ari
wahrscheinlich
tour
smartphone
löw
league
körper
jan
hol
ga
erster
bm
bi
bau
##tv
##ris
##oi
##iz
##im
##ib
##geb
##ast
wunder
ttip
mutter
links
let
landes
kurierat
jedes
hört
dax
bundes
bringen
##tig
##sl
##scher
##rte
##port
##mar
##ix
##hilfe
##hh
##gh
##cl
wg
va
star
ru
ren
pc
one
markus
mar
lichtenegger
krim
he
happy
grün
einzige
deutlich
chaos
brauchen
augen
99
##welt
##teil
##preis
##ow
##ons
##ok
##box
##alt
worte
wohn
windows
ro
karriere
bel
ah
##tten
##tl
##sy
##sport
##rp
##que
##lin
##ec
##by
zdf
op
mittwoch
hof
gutes
feuilleton
fahr
dienstag
denen
dar
daniel
bo
##scht
##rc
##ox
##nte
##kan
##fs
##ffe
##day
##cz
##berger
##bare
you
willkommen
wen
syrien
sehe
sau
sand
punkt
okay
max
jung
ber
500
##20
##uz
##tze
##sta
##rot
##politik
##elle
##det
zeigen
wirtschafts
privat
pop
pm
park
niemand
märz
mitarbeiter
messe
kennen
darauf
bildungs
##zw
##uer
##the
##sf
##rad
##nl
##lau
##dc
##bre
wurden
ve
unseren
trifft
tier
sta
sozial
sol
sinn
prozess
plus
nett
hinzugefügt
geworden
gesetz
gelesen
führt
fordert
follower
entdeckt
eltern
donnerstag
##yd
##weg
##uk
##tel
##sc
##lei
##km
##ität
##ini
##ih
##fi
verein
tote
total
spa
scho
rück
pat
oben
nord
madrid
komm
hilft
halten
franz
flo
ep
eins
ci
champions
##00
##ww
##ru
##ona
##nder
##ling
##fl
##fest
wi
verkehrs
tür
tatort
si
reicht
nummer
namen
lese
keiner
ging
fo
ei
dies
dia
dandyliving
abge
##ges
##feld
##fel
##fb
##ax
wahnsinn
später
schluss
rock
profil
others
mel
lahm
gruene
ent
ce
bevor
bestimmt
aufge
##yl
##tes
##sst
##ret
##mu
##kh
##inn
##erte
staat
solche
schr
reus
präsident
nr
manuel
könnt
kar
gedacht
gabriel
finale
fair
eigenen
cas
bzw
bahia
##zy
##xe
##pu
##par
##oc
##lit
##ismus
##frei
##cc
##ahr
wach
vilbel
spd
richtung
regen
pan
nsa
musste
link
life
langen
kurs
klaus
glückwunsch
einge
dj
##ust
##tur
##reich
##oz
##nu
##fo
##erl
##dienst
ze
world
vorhersage
unver
tre
staats
selber
sachen
pre
par
nah
meister
like
konzert
jede
gedanken
del
david
content
chance
campo
bro
apr
air
##yer
##vs
##ure
##sz
##sv
##stand
##np
##ngen
##lat
##kommen
##hs
##ange
##abe
zweite
wild
sz
stra
sitzt
samsung
russische
raum
microsoft
mahriah
krone
japan
ib
heutigen
gg
geschrieben
familien
denke
brand
black
bekannt
beitrag
##xa
##vl
##sver
##ogen
##oa
##lb
##gb
##ew
##ev
##ene
##bericht
##bank
##ann
za
wow
unge
mut
leid
leicht
lauf
ios
gi
fällt
folgt
fla
fehlen
et
erwartet
drin
dran
daß
ac
##yo
##tb
##sd
##rz
##ov
##fr
##ena
wind
spricht
rekord
pu
probleme
plan
ost
lol
kal
ic
helfen
heinisch
har
gen
gefühl
eröffnet
erstmal
danach
ben
##ucht
##rer
##lr
##ili
##fahrt
##cy
##av
##arbeit
##ara
zumindest
tra
ton
robert
länger
haupt
gre
chris
bericht
beide
35
##11
##urg
##tn
##sr
##oli
##nr
##fte
ya
sache
rest
meisten
kon
kampf
josef
hd
hause
glawogger
gespannt
futurezoneat
ele
dosb
dienst
con
cision
christian
05
##plan
##mc
##ise
##gesch
##eil
##ack
willst
weiterhin
umfrage
tatsächlich
seiten
schöner
schafft
salzburg
runde
pra
nee
nationalmannschaft
mu
lehrer
krank
kenn
irgendwann
größte
geschäfts
ersch
dra
cdu
banken
##24
##zug
##wn
##ven
##td
##ppe
##ller
##kat
##ji
##itz
##eli
wünscht
spät
spe
ruhe
po
kirche
ihrem
hohe
hasse
großer
germany
ever
diskussion
daran
br
70
##vie
##ua
##tet
##ran
##park
##lg
##ite
##hd
##dd
##bw
##ana
##ade
##acht
österreichische
vilinthril
videos
versch
ti
stuttgart
soweit
smart
schuld
rede
punkte
offenbar
mö
mm
mittel
merkel
meinung
leit
kreis
konnte
kleinen
gilt
gewesen
ep2014
digital
damals
af
01
##ös
##verbot
##sk
##schutz
##raum
##nung
##mit
##las
##die
##blog
##bild
ä
zi
zeiten
wirfuerd
verdient
ts
seh
müsste
mitte
mc
mario
liegen
hund
gregor
gas
freie
frag
fort
form
fm
fern
erhalten
doppel
börse
beiden
angekommen
##zc
##tung
##tk
##ssi
##rh
##news
##my
##mn
##lte
##lis
##lie
##kal
##funk
##ald
##aj
ziel
weltweit
vorher
version
urlaub
unbe
traum
ste
sparen
sh
pl
ph
national
love
inter
grünen
druck
darüber
cu
ch
beruf
ausgabe
anderes
##äre
##zel
##smus
##sb
##ron
##licher
##itt
##ischer
wald
ri
präsentiert
ni
komme
imp
ideen
herzlichen
garten
fit
ev
etwa
eb
dm
bessere
ahnung
##60
##wb
##uu
##ud
##tische
##tch
##stein
##scha
##rit
##off
##nommen
##gra
##err
##chef
##az
##asse
##ank
win
werbe
wenigstens
studio
stimmung
sprechen
show
politische
philipp
phil
offene
mädchen
mini
magazin
lieblings
lieb
lass
ker
herren
halbe
gesicht
fi
falsche
erfolgreich
bereit
beispiel
ar
##ßt
##yr
##yf
##yc
##way
##tw
##spe
##ski
##rag
##nw
##kla
##igt
##form
##ffen
##ett
##ding
##cf
##atz
zehn
vi
streit
spar
schi
rote
rec
nachmittag
museum
mode
kle
katzen
ivi
heut
fährt
feiern
familie
ehe
deshalb
denk
city
brauch
branche
aprilscherz
abgeschlossen
##40
##uc
##rsch
##lar
##igung
##eben
##are
wolfsburg
verstehe
unglaublich
tw
straße
spindelegger
sal
richtige
rat
protest
pri
müller
maria
linien
kurze
kauf
hätten
heise
gra
gericht
focus
fahrt
extra
erneut
doener
cro
besonders
32
##zei
##wl
##ui
##sto
##rv
##ros
##oy
##ose
##lig
##lam
##kl
##ick
##eim
##camp
zo
webstandardat
urteil
ul
sub
standard
sel
schlimm
rafaelbuchegger
nutzer
model
länder
laufen
lam
hy
humor
gefragt
extrem
deiner
dd
boy
band
account
33
##xu
##tzt
##tsch
##tik
##piel
##iss
##hol
##gm
##eni
##db
##dan
##cr
##bk
umwelt
tanz
strom
straßen
sonnen
sk
schmidt
pla
od
light
kollegen
kap
hä
high
helge
fand
edathy
echte
daher
cha
bb
anfang
allgemeine
##19
##üh
##sion
##ria
##nten
##nig
##lh
##ktion
##dung
##dis
##df
##adt
würd
verstehen
ver
unterstützung
stephan
steigt
socialmedia
simon
sen
rapid
personaldebatte
perfekte
perfekt
offizielle
ms
kleiner
klasse
katze
ji
höhe
hatten
hart
gesellschaft
ge
fnp
fischer
ezb
ehrlich
droht
demokratie
berg
ausb
anne
analyse
##yb
##xs
##vienna
##uw
##ting
##tern
##ska
##sg
##nze
##nc
##mh
##lan
##kg
##jk
##jahr
##hme
##gar
##erung
##dorf
##bus
##bh
##akt
überf
vergleich
u5
time
spielstand
sn
shop
shooting
seo
schwe
schritt
schlechte
paris
lä
kno
knapp
il
hör
gu
gri
fun
free
fh
fenster
det
daily
big
bie
bez
bereich
angebot
ali
07
##wald
##verkehr
##uni
##uck
##system
##stu
##rich
##log
##ierte
##hk
##gn
##gf
##cv
##bert
##ao
welcher
weiss
vertrauen
teuer
technik
spannende
sorgen
sicherheit
serie
sechs
respekt
opfer
ol
offen
nette
minute
mache
liste
international
interessante
hunde
himmel
forum
festival
erk
englisch
ds
dor
diepressecom
deinen
coole
bü
börsen
besuch
2015
##01
##zb
##vg
##use
##qu
##nat
##lose
##hy
##gy
##fra
##fan
##chte
##bie
##af
zer
zeichen
würden
west
unwetter
tore
tim
ticker
tat
sven
starten
soziale
shi
sche
prä
pen
partner
nu
maß
kla
joachim
ip
industrie
hen
han
haare
gro
gez
fcb
falsch
donau
daumen
cre
böse
bre
blockupy
berliner
##13
##zs
##yu
##tage
##qf
##programm
##oni
##neu
##kind
##iel
##haft
##ender
##daten
##ass
zb
xx
werner
verd
süß
stein
stark
sem
schüler
res
office
meint
id
hubertsickinger
holt
gr
gm
gewalt
get
fris
faymann
düsseldorf
dollar
debatte
brauche
bl
beh
begonnen
ausschuss
##ür
##än
##zg
##yg
##xy
##wert
##tät
##tier
##tf
##oll
##nter
##ionen
##geld
##fre
##ffm
##dn
##bra
##ano
##ail
wusste
warte
wahrheit
vorm
umsatz
tommayereuropa
sw
stolz
sicht
sha
rb
proasyl
opel
off
obwohl
night
michelreimon
mainz
luminale
lan
kö
kauft
islam
hosek
glas
gehe
formel
feuer
erz
eng
deutschlands
christ
betr
anna
amerika
##ße
##yi
##xp
##xh
##wk
##wj
##wei
##tr
##rung
##rkt
##rge
##mk
##lm
##ions
##ica
##hin
##gr
##gp
##erg
##ani
##amt
zufrieden
zib2
werd
vorstellen
verspätung
unbedingt
twittern
strawnews
scoopix
schweiz
sam
roman
rh
pack
mehrenhauser
linz
john
interesse
heiß
gere
gem
freut
fakten
europawahl
erd
empfehlung
dortmund
dom
deswegen
cur
christoph
bs
bracro
blut
bietet
alb
52

##04
##üt
##äge
##time
##star
##rea
##ppen
##pol
##ost
##nh
##lw
##ieben
##han
##gk
##geh
##eten
##ess
##echen
##dw
##ander
wur
winter
weltmeister
weh
wall
veranstaltung
slomka
sicherheits
setzen
schwa
schlag
schaffen
sah
regierungs
plakat
mannschaft
last
könnten
karl
kai
interessiert
gru
geist
funktion
frankreich
experten
eva
eröffnung
erreicht
deutscher
chmelar
##vp
##uh
##tat
##stadt
##rau
##pel
##online
##ond
##mr
##llt
##lli
##kor
##ieg
##handel
##fc
##fahren
##eut
##ero
##els
##dk
österreicher
zuge
wären
wor
wiesbaden
tsch
tl
tau
story
sendung
rom
rei
patrick
oma
offenbach
mist
linie
lg
lecker
kr
komplett
kli
kino
irgendwas
hmm
graz
gla
gesch
general
gel
förder
firmen
euer
erde
ea
diesmal
brief
bri
back
aw
ausstellung
aussch
abst
37
150
##3r
##zl
##tic
##tc
##see
##ochen
##och
##nm
##lauf
##kv
##kf
##imm
##iere
##fro
##echt
##con
##austria
##agt
wahlkampf
vers
verpasst
unterschied
transfer
tief
termin
süße
streik
straf
sitzen
rau
papst
nämlich
mos
mindestens
massen
manu
ly
lisa
leistung
könig
konzept
kl
informationen
immerhin
heutige
glo
ges
generation
gekauft
gefallen
gef
fuß
freude
freiheit
fol
fein
fahrrad
entscheidung
cat
bur
besch
baby
alp
72
55
43
300
##88
##vk
##vc
##unkt
##tro
##tan
##sn
##sar
##ont
##nie
##mmer
##md
##kd
##jl
##ichen
##hne
##fh
##eur
##erie
##cha
##br
##ane
vo
täglich
trägt
tr
tooooor
sterben
sim
sebastian
ret
profi
normal
minister
men
kommission
klose
klare
handel
halte
großartig
forschung
erstmals
ee
computer
bull
bestellen
autor
ausge
aktuellen
54
3d
39
##30
##öl
##zimmer
##win
##wh
##sw
##qx
##pw
##pal
##nger
##mie
##lage
##kr
##kont
##fg
##esch
##era
##enden
##dra
##ders
##com
##chter
##bauer
##ath
##app
österreichs
york
weber
volks
verloren
verk
verbindung
tritt
stimmen
rennen
reisen
papier
oliver
nö
music
monat
mobil
meer
matstrolz
mark
lü
lou
lern
lau
lachen
kä
hp
halbfinale
getr
fliegen
dumm
burg
bla
bj
betriebs
ausges
auftritt
argument
angeblich
alleine
ai
##äh
##zin
##xz
##xn
##wt
##uli
##uen
##rst
##pper
##oti
##mw
##mor
##mas
##kn
##kc
##jy
##gasse
##fk
##ete
##erk
##enb
##ej
##ech
##chs
##cb
zus
worden
website
vp
verkauft
ub
tablet
t3n
schrift
rollen
riesen
rhein
pur
pflege
om
näher
nikoalm
musst
miro
mic
küche
kommunikation
iv
hundert
hel
glaubt
gl
gew
geschenk
geschafft
gebe
freiburg
flüchtlinge
fleisch
fahrer
draußen
chelsea
brodnig
bock
baum
bas
av
apo
ant
angriff
achtung
absch
##99
##ört
##zk
##yh
##xm
##wy
##uq
##sin
##ring
##ple
##pc
##oj
##nner
##mg
##jn
##jg
##hre
##hf
##hc
##cks
##bm
öko
werk
wechsel
verdienen
vd
todes
teams
stern
ss
spieltag
selten
schwimm
sap
sagte
ros
plötzlich
pin
photo
person
mitge
meinst
mad
luc
liefer
letztes
len
kostenlos
kirchen
kenne
jun
ing
hü
holen
hoffnung
hey
haut
hahaha
gewinn
geo
fa
dü
damen
cra
cor
cloud
beg
auftakt
anzeige
acht
abh
##zp
##zahl
##xl
##xf
##wirtschaft
##vy
##tri
##tp
##suche
##str
##sie
##rj
##qv
##pm
##pho
##out
##ossen
##onen
##mpf
##mis
##minister
##lär
##jv
##ino
##ingen
##gru
##geben
##gas
##fli
##fle
##etzt
##dr
##chtig
##chl
##bp
##aten
##ali
##aktion
äh
zuhause
wollt
wal
vater
unten
typ
tee
sy
stelle
startup
staffel
sonder
schweizer
reg
morgens
may
mat
lob
lehr
lebt
kontakt
klo
kat
just
jm
jeannypart1
hashtag
gewitter
gest
fürchte
frühlings
froh
florian
duell
dritte
din
denkt
dach
bezahlt
bea
bal
apps
anchvie
abs
42
##96
##über
##wp
##woche
##wm
##vd
##uv
##uhr
##tg
##sre
##rre
##ram
##qg
##press
##ord
##mpe
##lia
##kultur
##jz
##js
##jd
##iti
##gew
##for
##e2
##bot
##book
##bit
##auer
##anlage
##alen
##abend
zahlt
wolfgang
wolf
warnt
vora
vie
verst
vermutlich
trend
trau
trans
tja
tickets
ticket
tennis
telefon
stau
song
sach
rk
pirat
petition
mer
mcgeiz
kri
komp
hö
hunger
hell
heimat
guckt
gleiche
gewinnspiel
geschäft
gek
frisch
end
che
botschaft
bloß
bene
ard
antworten
anl
allianz
aa
34
##80
##ön
##urs
##tour
##shi
##ql
##pfer
##our
##nts
##nge
##kurs
##jh
##iq
##fy
##fd
##eri
##eld
##bn
ändern
wichtiger
verw
verdammt
tur
tollen
ständig
spannend
sowieso
sex
scha
reich
qua
plattform
mitglieder
letzter
kur
kan
jährige
irgendwo
innovation
ig
heiße
gründer
fs
frühling
fru
freue
florianklenk
fernsehen
europaanders
etc
ess
entscheiden
cont
chancen
boden
blöd
bein
beendet
101
09
##6u
##öse
##zj
##zd
##yw
##welle
##vt
##ux
##ums
##tie
##ther
##sem
##sei
##qm
##qh
##pla
##nische
##nahmen
##nah
##mf
##lv
##legen
##ika
##ieb
##ice
##hop
##hb
##har
##fz
##fahrer
##dat
##arbeiten
##allen
überall
zwi
yo
wirst
wei
voller
vir
versucht
traurig
trailer
themen
strategie
store
spring
reform
positive
por
pause
osterfest
olympia
nachdem
mega
lösung
lei
landaudaniel
kro
klima
kaiser
julia
journalismus
italien
irre
informiert
homo
hinweis
heinz
geg
fri
flugzeug
erklären
edition
dringend
derstandard
castlez
bä
blu
bart
bade
andre
ama
afd
aerztezeitung
a1
1000
08
##ül
##zn
##zf
##wv
##vh
##tweet
##tas
##sge
##rke
##qp
##post
##oss
##orn
##nes
##jp
##jm
##ild
##hei
##gal
##führung
##fp
##fach
##ester
##erb
##ele
##dh
##bg
österreichischen
ärger
zahn
weiße
wecker
vw
vfl
unfall
technische
stück
sturm
ski
schu
schlägt
rechte
read
produkt
pizza
paulo
niemals
mittags
lind
lebensmittel
kom
jens
immobilien
hor
herzen
gesund
from
freundin
fragt
fitness
filme
falter
entwicklung
elke
ek
eigen
durchs
dt
deluxe
darum
box
bezirk
baut
anzu
##81
##12
##zentrum
##yk
##wort
##wer
##wd
##wart
##ute
##unter
##tisch
##test
##qe
##pie
##nier
##nahme
##mv
##magazin
##lem
##leich
##kb
##kar
##ium
##ita
##gri
##chni
##chie
##chel
##besch
##ala
zoo
wählen
wr
wh
welches
wahre
tro
tech
tagesschau
streich
sto
scheiß
rosen
richter
public
private
praxis
pil
personen
peinlich
omg
ny
multi
monate
mil
meta
machst
legt
langweilig
künstler
konflikt
klick
kamera
jedem
internationale
hitze
herzlich
herum
handball
good
gei
gefahren
fordern
fin
ey
ergebnis
erg
ec
char
blue
beziehung
bestätigt
berufs
asyl
alkohol
abf
##25
##vz
##vers
##val
##uo
##unden
##ult
##ull
##tm
##stra
##schau
##rina
##pra
##ppi
##ove
##ous
##ome
##ola
##nv
##nnt
##nnen
##mil
##maschine
##lus
##krieg
##kle
##jx
##isiert
##isches
##int
##info
##hj
##hessen
##gin
##gend
##gabe
##ffi
##esen
##emi
##don
##dom
##dj
##dg
##cer
##cal
##bz
##bd
##ats
##ark
##ame
yu
warm
vortrag
vertrag
verp
verh
unterstützt
unterstützen
unters
street
sti
steigen
sr
schoko
sarahas
runter
run
roll
ring
ram
piloten
papa
oo
note
ned
nationalrat
nase
nad
mund
lun
kostet
karte
karfreitag
justin
herrlich
hau
handeln
gö
gruppe
gesamte
genauso
fä
fisch
fett
erdogan
eg
digitale
dh
dauert
date
cup
can
budget
brüssel
book
besteht
auszu
aussage
aktie
199
##3h
##23
##zone
##zh
##zeug
##vu
##une
##tzung
##tru
##swe
##stellen
##rste
##ress
##pre
##mü
##lang
##kp
##kj
##jr
##itu
##hte
##hle
##hil
##hg
##erei
##dq
##dic
##chu
##chaft
##big
##best
##band
##ativ
##ape
##annt
##ake
##aft
ye
vorne
vertr
versuch
verschl
ven
vegan
türkische
timeline
testen
steh
son
sohn
set
sea
s04
rolle
rj
rezept
renn
prot
pass
original
nächstes
mölzer
more
marke
leser
kämpfen
kraft
karten
kaputt
jugendliche
jaaaa
int
indi
hoffen
halle
hach
fle
fav
dea
dagegen
col
coach
brun
beweis
bekomme
bef
außen
arm
anges
aha
##84
##ätz
##yv
##xq
##xj
##xg
##war
##vw
##u1
##tner
##ssa
##sq
##sla
##schein
##rü
##rä
##reise
##ras
##rah
##qq
##pat
##ott
##oth
##ore
##oben
##nst
##ning
##licht
##king
##ille
##iker
##ij
##hx
##hlen
##gre
##ght
##fj
##eins
##eich
##dia
##dem
##cp
##cd
##bv
##bahn
##ator
##ante
ähnlich
zw
zuerst
ww
wunsch
wtf
workshop
whatsapp
weißt
ui
trading
tometweetme
terror
termine
strecke
solange
sg
schwere
schwarze
scheiße
report
preise
pipermint98
pf
nürnberg
nato
nachge
mol
ml
militär
mei
md
mari
leipzig
laden
kw
kos
kas
jesus
ir
ide
hon
home
hip
heiseonline
hei
gewonnen
geste
gemein
gedr
führen
fix
finger
finanzen
feiertage
erinnert
ehren
dn
dicke
dg
dan
bund
bru
boe
blogger
birgit
bekannte
beginn
bayer
base
aufstieg
apfel
48
38
##7w
##42
##üb
##zis
##zeiten
##xw
##xd
##vn
##uti
##una
##tom
##technik
##stag
##rom
##ral
##r1
##pv
##pg
##pd
##ora
##oq
##nom
##nar
##mittel
##lug
##kung
##jw
##isi
##ile
##hä
##hw
##hren
##gv
##gung
##gst
##gd
##enz
##ela
##ehe
##dz
##cm
##cj
##board
##att
##assen
zucker
welchem
weise
verm
uk
tragen
tolles
tobias
sä
schulz
satz
retweet
rablpeter
plakate
pet
oc
np
now
nich
mittlerweile
michel
merk
meist
meines
medizin
mama
kreative
kor
kons
jack
inkl
human
hard
handels
gue
groebchen
georgprack
gelernt
fernseher
erfahrung
entw
einse
dreh
doof
dauer
datenschutz
csu
cho
bruder
bew
bedeutet
arg
age
##21
##zm
##ziel
##wr
##var
##tzer
##tj
##ssel
##spr
##scho
##rten
##reu
##qa
##pb
##partei
##orm
##nken
##ndel
##mati
##lten
##liches
##leben
##kq
##jt
##iu
##hor
##halten
##gw
##für
##fn
##eise
##dri
##dor
##cx
##cup
##chten
##aren
##amme
üb
webseite
vorge
verletzt
verf
vera
una
ue
soc
skandal
sexy
schneller
schmu
schla
schein
sch
runtastic
promi
pressekonferenz
planet
neg
nd
nackt
müll
manchester
management
london
lohnt
lady
kre
kleines
keller
kandidat
jungs
ia
htc
hil
ham
gucken
green
grau
german
gemeint
gekommen
geheim
gamestandard
friedrich
fli
entwickler
elf
eishockey
einzel
e3
dürfte
dennisbeck
cy
couch
comm
chi
brav
bord
bab
az
anb
allerdings
abwe
absolute
65
57
##zx
##zip
##ware
##vj
##vb
##utz
##tho
##spiele
##sal
##rw
##rus
##ritt
##ric
##qz
##phi
##opf
##omm
##ode
##ngs
##nel
##nda
##nci
##nach
##management
##lex
##kre
##iii
##hör
##get
##fin
##film
##ffel
##ese
##eid
##das
##beg
ziehen
wür
wunderbar
wenns
wars
vierte
verlängert
starb
soli2401
snowden
situation
sec
sco
satire
quer
power
nova
nf
nennt
nem
möglichkeit
mitten
misik
mh
mg
melden
matthias
matt
marcuswadsak
marco
magi
lin
limburg
kie
karas
jürgen
jähriger
jp
jedenfalls
ih
hälfte
hea
harald
guidotartarotti
großartige
gesundheit
gefahr
fühlt
fw
football
exklusiv
europas
erstes
einheit
dö
dis
deren
deinem
cr
cl
bos
bor
bit
beginnen
barcelona
baden
arbeitet
ang
96
75
44
201
00uhr
##üll
##ätze
##äng
##zing
##yx
##wä
##wq
##work
##wg
##ves
##verd
##urf
##uj
##top
##team
##tadt
##spa
##schä
##rek
##qb
##prozess
##prech
##ppt
##pn
##pj
##ooo
##nj
##nal
##mx
##mat
##liga
##lick
##kü
##kes
##jc
##ife
##iche
##iba
##gq
##gespräch
##fw
##freiheit
##erh
##erge
##ehr
##dx
##dp
##dal
##chw
##bri
##bei
##beh
##bea
##bc
übernimmt
xp
wobei
with
wienerzeitung
wechselt
vorsicht
vin
versa
verlag
verkaufen
uh
theater
tebartz
studien
silber
schließt
schei
schaden
räum
region
ras
ps4
pflanzen
persönliche
nin
neuwalcom
neo
nachts
müh
mrd
mitglied
mes
mehrere
medi
marcoschreuder
längst
lesenswert
lar
instagram
holz
gh
gewa
gep
fel
ern
ergebnisse
eil
dy
dennoch
deb
datum
dani
block
berichtet
august
alexander
abschluss
800
##70
##53
##22
##üm
##wol
##wie
##vr
##vm
##vier
##vf
##uber
##tlich
##t1
##run
##ruf
##rik
##rier
##rate
##pfen
##orf
##oren
##nti
##nta
##nik
##mmel
##mj
##liste
##leiter
##ity
##isierung
##ink
##inen
##ila
##iges
##iga
##hv
##gnis
##gele
##gc
##fun
##erst
##erf
##eq
##ehl
##dm
##blo
##bf
##arte
##ahn
##adi
öl
züge
zweifel
zahl
work
vl
universität
unf
tru
trink
trag
such
städte
stream
stell
sitz
sieben
shitstorm
schreib
schmeckt
rückt
richtigen
ref
plant
old
nor
nerven
mrs
moo
moderne
miete
metal
lied
led
lage
kurt
krass
kostenlose
kh
kern
justiz
insta
innsbruck
hs
how
holl
hh
heil
gui
group
gp
gespielt
gerarm
genießen
gegens
fü
flu
fl
far
erwarten
erh
erf
emotion
download
cs
cop
cli
bib
bewegung
award
aufm
antjeschrupp
andrea
anana
alternative
##77
##6h
##4e
##4d
##ün
##wx
##wir
##weis
##wal
##vv
##uts
##unft
##under
##uckt
##tellung
##sku
##sis
##rne
##reis
##pz
##prin
##pha
##pers
##pass
##ors
##nit
##nehmen
##nce
##nacht
##mä
##mut
##mq
##macht
##lke
##kz
##kx
##jj
##iden
##ide
##icher
##hoch
##gut
##fuss
##fri
##flo
##erat
##eme
##egen
##cw
##ckl
##cho
##chner
##can
##brot
##boy
##ati
##asch
überwachung
zeug
wächst
what
wahlen
vorschau
vorbe
verwe
versuche
vermisst
verlässt
verlieren
user
uniwave
tochter
tele
teilnehmer
stro
stre
stop
station
sports
sorgt
snow
sms
sende
seb
schal
rollt
rf
reihe
ray
rauch
rand
quasi
prof
polizist
oli
oi
offiziell
oevp
mix
mitmachen
marken
lie
ks
korrekt
kommenden
kindern
key
jungen
johannes
jam
iwona
iss
ink
if
horizont
hbf
geschmack
gemeinde
gele
gee
gebäude
fähr
funk
fred
fil
feld
feier
erscheint
ernsthaft
erinnerung
eri
eco
ebay
dur
dk
bv
borussia
blaue
besserung
bang
bahnhof
außerdem
aut
arzt
anmelden
andr
akt
ahmadiyya
afrika
##9u
##4b
##3c
##äss
##ziert
##xk
##wis
##vx
##volle
##video
##uten
##tä
##tau
##sung
##streik
##straße
##she
##schm
##schafts
##ruch
##qy
##qn
##qj
##qi
##py
##part
##ohn
##nsp
##ley
##latt
##kun
##kri
##krat
##ings
##iegen
##halb
##gz
##geschichte
##fx
##ente
##ekt
##einander
##eda
##din
##aro
##anti
##ahl
überraschung
wä
witzig
weiterge
wasch
vorw
verwende
ut
taxi
stärker
streng
stimme
steuern
starke
stamm
spanien
sonjaablinger
siehst
siegt
seminar
seele
schmerz
sar
saf
rtl
ris
reine
qu
port
politikstandard
pir
pha
obama
nutella
netzwerk
nerv
nennen
nehme
müde
mü
mor
mon
mits
mau
ls
liest
liebes
leichte
kärnten
kritisiert
kredit
kreativ
klassen
klappt
kick
jag
inhalt
inf
hann
gü
gä
guck
grenzen
gie
gespräche
fuer
friedrichpendl
freejosef
fkaustriawien
fatmike182
fancyduke1
fallen
empfang
einsch
doku
demnächst
comp
bou
bienen
besucht
bauen
autos
aufw
aufbau
arme
ap
antrag
anf
abl
a3
##9p
##3n
##18
##üge
##üche
##zier
##zeichen
##yz
##yy
##wz
##wechsel
##verein
##verband
##urt
##unt
##ump
##ule
##uche
##tsche
##tive
##theater
##tein
##stl
##stet
##sicher
##seite
##s7
##rio
##org
##olog
##nehm
##ndet
##messe
##linie
##let
##lac
##kw
##kta
##ket
##iy
##ilm
##ike
##hung
##ham
##habe
##gold
##gef
##fertig
##eria
##ema
##dv
##dische
##cq
##chau
##bul
##bereich
##auto
##ase
##alter
##aha
your
wunderbare
word
wirkt
wem
weis
volle
verdacht
u2
südkorea
störung
spin
sound
soeben
siehe
sichern
selfie
schiff
schicken
scherz
rä
ronaldo
rekordtorschütze
puls
prinzip
playstationde
parteien
osterfe
ostereier
ordentlich
nrw
normale
niederlage
nazi
nar
mün
motor
moskau
met
meinte
mahn
lebe
lab
konzern
kna
kiew
häuser
heide
haushalt
hauptbahnhof
größten
glücklich
geschi
gescha
gerhard
gela
gegenüber
funktionieren
frische
eta
erfolgs
erb
enth
empfehlen
eli
einladung
ebook
durchge
dumme
dreht
div
dat
christen
bk
bitter
bill
bekl
anw
abzu
absolut
95
62
47
##8x
##82
##7c
##66
##5k
##3b
##0l
##09
##ören
##ßer
##zeitung
##weh
##wasser
##vors
##vin
##usch
##stellung
##schw
##risch
##riff
##qr
##prä
##pq
##por
##pk
##oß
##offen
##nx
##nq
##ness
##nch
##mmen
##meister
##mai
##linge
##lc
##l6
##kraft
##kon
##kin
##kas
##karte
##jan
##hing
##gie
##gesetz
##frankfurt
##fie
##essen
##esse
##erz
##enn
##ellen
##eba
##dit
##dig
##dern
##dent
##chle
##bü
##bad
##ance
##amo
##als
überblick
westen
well
versteht
verrückt
verliert
verbot
urb
ua
trinken
tradition
tab
symp
stress
steve
stars
special
spass
ska
sing
senior
schulen
schmi
schaue
schatten
sao
rp
rel
qualität
pö
produkte
prince
poste
pal
official
oe1
ns
nieder
name
nachs
möchten
momentan
mk
mcdonald
mayer
marc
lim
les
leer
laptop
kommst
koch
irr
irgendwe
ik
hot
glä
gesp
geheimdienst
ged
gang
fund
freizeit
food
fem
fass
fanhansa
europäische
erzählt
erm
erkenntnis
eric
erdbeben
endstand
elektro
ehrenhauser
earth
dz
datens
crowdfunding
cri
conc
bw
bmw
besuchen
begeistert
bed
ausk
aufstellung
aufsch
atom
atm
at6kznxyia
anm
anleger
ane
89
46
0xjwwibuzn
##98
##86
##4z
##4s
##4n
##4a
##1a
##17
##öff
##zv
##web
##versammlung
##verl
##usi
##ula
##ttl
##ttel
##sä
##sma
##schla
##rum
##rma
##resse
##rde
##ragen
##qw
##qui
##qt
##px
##pack
##oma
##nfa
##mun
##mber
##lls
##live
##konze
##kom
##jb
##ish
##hp
##hofer
##hner
##hie
##gler
##gan
##finanz
##fee
##f8
##ensch
##eite
##ean
##e1
##dlich
##chst
##bun
##bro
##bli
##beck
##aw
##arr
##afte
öh
zauber
xtb
wichtige
weltk
weiteren
wd
watch
wagen
vogel
versteh
uv
ucl
twit
ter
tank
sus
sun
stil
statistik
standort
schoen
schloss
sav
sage
sab
rie
rem
reinh
regeln
realmadrid
rathaus
rab
pfarrer
peterslaufblog
pap
osterhasen
ohr
nähe
nice
mond
million
milch
mb
marv
mart
logo
lis
lb14
lande
kriegs
katha
kampagne
jubiläum
inde
höre
hypoua
heuer
heilig
hammer
gesundheits
gent
geile
galaxy
front
fritz
freien
fou
fore
final
feierabend
fac
fabi
evolution
eska
dv
doppelt
ding
com
cola
cm
claudiazettel
bud
blü
blau
bf
besetzt
bescheid
berater
beat
ank
anh
ami
akku
##7s
##71
##5g
##1x
##1m
##0a
##öhn
##äs
##änd
##älle
##wu
##wf
##wein
##verb
##tx
##tti
##sbu
##rien
##rfe
##rab
##pti
##oto
##orte
##opo
##ole
##old
##note
##nic
##kte
##kot
##komm
##inst
##imo
##ill
##hü
##garten
##etz
##ersch
##elf
##dge
##derl
##car
##brun
##blick
##bil
##b2
##afe
yeah
wsj
wozechner
wette
wenige
weder
webinar
wander
vorstellung
verändert
verz
verwand
united
uber
treff
thi
tas
tar
tap
talk
tal
ster
spotify
soviel
sir
sinne
sil
serien
schönste
schn
schickt
saa
rücks
rw
rob
rit
rio
retten
reminder
regi
regel
recruitingservices
publikum
pressemitteilung
pres
pietstream
passieren
osterhase
neueste
nachwuchs
mind
mand
lustige
leo
lehermayr
kol
karinleitner1
kame
kalte
io
institut
infografik
ihres
hauptsache
hall
gy
gründe
grade
goethe
gleis
gib
gesto
gesperrt
gera
gegangen
fro
fried
fp
firma
erhält
einsp
einges
einfache
dä
dl
dialog
df
details
definitiv
dam
daheim
cou
cd
bz
burger
blumen
beteilig
bast
ausgeb
ausf
arte
andi
anderer
alm
agentur
abstieg
85
61
49
400
191
##7h
##74
##5m
##5h
##32
##2c
##08
##ücken
##änk
##zq
##zar
##xr
##xc
##würdig
##wand
##uß
##uri
##unk
##ube
##stä
##sts
##stoff
##steuer
##ske
##sj
##sierung
##sey
##sek
##richte
##reisen
##qua
##qd
##poli
##plus
##pft
##otte
##olt
##nü
##not
##nke
##nist
##ndig
##ndi
##medi
##lop
##lock
##kus
##koe
##kma
##key
##kauf
##k1
##ittel
##its
##iter
##iner
##ießen
##ida
##hz
##hri
##him
##halt
##gx
##gericht
##enm
##enk
##ege
##cia
##c6
##betrieb
##bereit
##ausf
##aff
überraschend
äußer
zäh
zweiter
zuk
zugang
zieh
yi
xing
wider
wiblatt
who
welttag
waldwoelfin
vorstand
vors
vice
verlassen
union
unges
umfa
toller
syn
stärke
style
spitzen
spitze
sou
sonnig
schü
schä
schatz
rupprecht
rettung
reichen
rang
ran
pros
prop
projekte
praktisch
podolski10
pleite
ostermontag
onlinevitalshop
oa
nötig
niedrig
nahe
mögen
must
msulzbacher
mitt
mikro
metro
menge
manfred
make
lukas
leiter
lea
küh
kuchen
konferenz
karin
kana
jud
joe
jk
höchste
hopp
hochzeit
hirn
hihi
hack
gäste
gin
gewählt
gewinne
geplant
gelbe
gegner
games
führung
fuck
fremd
franc
fonds
fak
eröffnen
erzählen
entdecken
ell
eisen
eigent
despell
dep
deal
cross
cel
call
bürgermeister
bremen
breite
bp
bol
blitz
beschl
bernd
berichten
bek
ast
ass
arena
anscheinend
angel
angeb
abschied
98
##9e
##8k
##7n
##5z
##5s
##2a
##ügen
##zus
##zuk
##z5
##yj
##x7
##weil
##wagen
##vit
##vic
##v0
##uy
##uro
##tzte
##tron
##tim
##tele
##swert
##stin
##sli
##sle
##sches
##sab
##rep
##reg
##red
##rben
##orge
##oka
##nsch
##nds
##mme
##media
##lä
##lon
##lip
##kra
##kam
##jq
##isti
##ieh
##gro
##gebung
##fol
##erw
##enst
##enh
##elb
##eger
##edi
##deck
##chm
##chlag
##bücher
##bund
##bj
##b1
##auss
##ause
##auft
##ary
##ago
öfter
zählt
zwe
zeuge
yousitonmyspot
xs
xi
wege
voran
view
verboten
unternehmens
trainings
tours
swi
str
stiftung
sprache
spezial
soooo
sempart
schwierig
schwester
schlu
schlechter
schan
schaff
sammel
rö
rusentimuraksak
rl
risiko
rep
raf
qui
quelle
polit
pokernatic
plätze
plu
pie
philoponus
pfingst
ostukraine
osten
optimi
opposition
notwendig
nina
nike
mus
mum
meldung
mehrheit
lil
learn
lasst
kun
klage
king
kim
kay
juhu
irak
internets
interessanter
hübsche
hie
helm
großes
gratulation
golf
gestellt
gese
geru
genf
gebracht
fur
ft
fre
forscher
fleißig
fer
feiertag
farbe
explo
europe
erlaubt
erl
erfüll
erfolgreiche
erfahren
ente
endet
emp
effzeh
ef
eck
dw
dunkel
drogen
demonstra
dc
cover
condor
cn
chip
chill
buechereiwien
brasil
bibliothek
bestes
bauch
bakhall
audio
anlage
analys
ale
81
74
68
51
##68
##0r
##0n
##03
##02
##ärt
##zogen
##zieh
##zent
##xv
##wat
##vq
##voll
##verk
##van
##uren
##ume
##thek
##text
##teri
##telle
##tech
##sun
##stur
##staat
##spieler
##skr
##sinn
##sho
##sfo
##sein
##s8
##s2
##rolle
##ringe
##reform
##ref
##rch
##rand
##rain
##rac
##qs
##pic
##party
##ote
##ols
##nos
##mod
##maß
##lib
##kur
##kti
##jung
##jf
##izi
##iw
##ito
##inter
##ial
##hrt
##hq
##his
##hers
##hart
##fähig
##fit
##eum
##ette
##erd
##efr
##een
##ection
##dre
##d2
##cti
##chma
##chat
##bq
##bas
##bacher
##auch
##ates
##arten
##aq
##angs
##alität
##air
##ado
xaoticca
wett
werder
wel
waffen
vorle
vil
vernunft
verg
verfassungs
verfahren
tz
typisch
trä
trip
trends
terrasse
tb
taschen
tarif
tanzen
szene
stories
stecken
spi
sm
sitze
shirt
schma
schlechtes
schlan
schick
sascha
rü
ruft
rs
rmv
reaktion
rainer
quote
py
prim
premier
pp
philip
pani
othmar
osterma
ori
nutzung
nic
nas
nachricht
motto
morg
monaten
mez
maus
master
mars
maa
logistik
lock
late
lad
künftig
kum
kotz
konf
kapital
jä
js
inhalte
inc
häufig
hängt
house
hit
heißen
harry
handwerk
hamburger
hai
genu
generell
gehirn
gehabt
gd
fälle
fotografie
follow
finanzminister
faul
exp
erstaunlich
entl
empf
einst
einkauf
eink
eich
easter
doc
diskutieren
deze
dest
derby
defini
decke
dauern
data
crowd
cg
caro
bühne
bewerbung
bernhard
bernabeu
beantworte
barbara
ausbau
auff
anton
anpfiff
alaba
ae
abse
abends
77
73
600
58
41
198
##9n
##9g
##8j
##6b
##3v
##31
##1q
##0x
##0t
##0c
##üsse
##ürz
##üg
##änz
##ändig
##ßig
##xie
##vol
##urn
##sx
##stro
##stre
##stor
##spar
##sicht
##sdorf
##schal
##rol
##rger
##rbeite
##pul
##präsident
##presse
##ppel
##plätze
##oste
##nab
##n9
##n2
##mini
##mier
##mic
##main
##machen
##m3
##lla
##lj
##liert
##kos
##kis
##kation
##karten
##itiv
##icke
##held
##halle
##hafte
##gruppe
##gon
##gj
##gger
##gere
##gehen
##fv
##frau
##forum
##fehler
##f1
##essi
##eis
##eib
##eht
##ehmen
##eche
##eber
##eat
##druck
##dos
##denken
##deb
##dbach
##col
##code
##chri
##chreib
##chn
##chance
##cen
##bes
##ban
##b3
##ato
##aste
##alle
##aga
##aden
##act
##aaa
##a6
zufällig
xe
wünsch
wtyvdr7rfw
wol
witz
wissens
wiederhol
white
wes
warst
vu
vorratsdatenspeicherung
vormittag
vorl
vol
vita
vik
verwenden
versteckt
verlang
uwk1ijpbiy
urs
unfassbar
unabhängig
ulrikelunacek
u1
turnier
tschahnschpange
tisch
tiere
tg
texte
talent
sü
steckt
stea
stammtisch
stad
spinne
sonnige
socken
sli
single
signal
sig
sho
schließ
sb
rücken
relati
reiche
regional
realität
ralf
pul
pg
pflicht
pferd
oz
nächster
noti
niveau
newsletter
neid
mitterlehner
misch
mf
marcel
mangel
made
leyrer
leuten
lach
kriegt
kontrolle
kni
kc
jr
istanbul
inn
hölle
höhere
hohen
hl
hilf
helene
haar
guracell
gun
grü
griechenland
grand
gottes
girl
gewi
geplante
gb
gau
format
fn
februar
fdp
fashion
fad
europäischen
erinnern
entgegen
energiewende
einw
einl
eing
eindrücke
dream
disk
community
code
cla
bö
busse
bunte
brutal
browser
besondere
berichte
baustelle
barbarakaufmann
aufzu
architekt
ansehen
anschauen
anr
amb
abk
abi
71
69
59
250
2012
140
##9h
##8b
##87
##7u
##67
##5u
##5a
##3x
##3w
##2p
##2n
##2m
##1r
##0m
##üf
##zte
##zir
##zil
##zahlen
##z0
##x4
##wun
##wor
##west
##wache
##vention
##ude
##ual
##tum
##tions
##start
##ssp
##spo
##sor
##set
##service
##schule
##same
##rät
##rda
##rbe
##pause
##pag
##p5
##oten
##odi
##ock
##nne
##nha
##nei
##n7
##museum
##modell
##met
##mensch
##meier
##mei
##mark
##lx
##llo
##legt
##lation
##lad
##kol
##journal
##j8
##itze
##itter
##ith
##ipp
##iko
##ifi
##iell
##i2
##hrte
##hhh
##hausen
##hau
##had
##gress
##grab
##fotos
##fort
##fir
##fahr
##eti
##enten
##enf
##enc
##effe
##edel
##e0
##dde
##c4
##bin
##bilder
##bib
##awe
##arch
##anu
##ando
##amm
##ama
##akti
##abi
übers
überg
öffentlich
zuges
zuf
wom
wnothard
wand
wac
vorbereitung
vll
verwaltung
verstanden
verspr
verkl
verfügbar
vere
verbraucher
unterst
unternehmer
unp
tö
twi
träume
trauer
stor
stock
sterne
spr
spieltags
spam
smi
sla
sl
server
sd
scr
schönheit
schwei
schna
schlä
schlimmer
schild
schalke
sca
sauer
sat
rib
rev
reb
rap
präsidenten
präsentation
prinz
premiere
pep
passw
partie
paket
ostersonntag
oscar
ordnung
oljaalvir
nä
nowkr
nh
next
nerd
mur
mou
moti
meldet
livestream
kürz
käse
kult
kp
konte
koe
kg
kasse
karlsruhe
invest
hütte
hum
head
harte
günstig
grunde
gelegen
geha
gat
fühle
fängt
fsv
frlokal
folgende
flucht
fifaworldcup
fehl
farben
fam
etagenwohnung
erober
entwickelt
einger
eig
drüber
down
diskutiert
dieg
danielmack
countdown
cos
building
ble
binde
bewusst
bet
beruhig
austrian
austr
aufstehen
aufh
aufgeh
asp
arn
arbeiter
anwalt
anst
anmeldung
angebote
albert
aktive
abr
abgeh
120
##9t
##9j
##97
##92
##91
##89
##7q
##4y
##4i
##36
##16
##0w
##ält
##ächt
##zins
##wag
##vill
##vertr
##vera
##ungss
##tragen
##teu
##tere
##swa
##ssch
##schuss
##sau
##sat
##rwe
##rund
##rue
##room
##richt
##rey
##rdi
##rce
##racht
##quar
##projekt
##preise
##pfel
##oko
##o1
##nho
##nheim
##ndung
##nchen
##mz
##mad
##m8
##lic
##leb
##kuch
##kap
##jährige
##irat
##imme
##idi
##i4
##hun
##hoff
##gänge
##gelt
##fried
##fq
##flu
##f0
##erli
##eide
##efe
##dels
##club
##city
##chal
##bä
##brau
##bon
##blu
##bern
##asi
##amp
##abs
##a0
überlege
öst
zy
zweiten
zie
yes
wähler
wollten
wohin
wl
wink
wid
wenigen
weidenfeller
wandel
wan
vögel
vorauss
visi
verschi
verkauf
verbra
uu
unterl
unk
unglück
tus
train
teure
teste
support
stä
studenten
stoppt
stirbt
status
staatsanwalt
spre
spontan
spoe
spo
spargel
skybuli
silv
science
schwäche
schwierige
schutz
schulden
schuhe
schlage
rätsel
ruf
rip
rheinmain
reichsvikar
recherche
reagier
rams
rahmen
platt
pic
phone
philosoph
petra
offensichtlich
nt
neur
nc
nachbar
mercedes
lp
leg
kün
kulturolympiade
kraut
krankenhaus
klub
kill
irgend
intern
homepage
hollein
hoffenheim
hein
has
haider
grundsätzlich
grafik
goldene
gn
girls
gig
gerichts
genial
gelös
geheimnis
gebmoped
full
frohes
finkedouble
favoriten
fang
fail
experte
ewto
erhol
entz
entst
edu
dicht
ders
coll
clo
cit
chorherr
carsten
carlo
cal
brü
bg
betrieb
beschäftig
benötig
behörden
beha
auswe
ausla
ausl
attack
asi
arsch
ann
angesch
amerikanische
alarm
agen
abt
abges
197
##9i
##94
##7z
##7t
##7r
##7g
##6k
##5i
##4l
##48
##45
##3s
##3l
##3f
##2s
##2k
##1p
##0v
##0u
##üs
##ürf
##ühre
##üchte
##ösen
##örder
##öger
##ßl
##you
##xel
##wohnung
##wit
##wetter
##werb
##w2
##verha
##usen
##usa
##urr
##urlaub
##unde
##u0
##tzel
##tq
##too
##tli
##tei
##tation
##sum
##stig
##stat
##sprecher
##sne
##sier
##send
##rö
##runde
##row
##roi
##rip
##ried
##rank
##qk
##pto
##pri
##play
##oter
##nä
##nni
##nisse
##mir
##ministerin
##low
##leistung
##kö
##ktur
##kosten
##kame
##k6
##ize
##ition
##industrie
##ichtlich
##i1
##hose
##hnt
##hat
##haa
##gue
##gte
##gramm
##gner
##gestellt
##gat
##g6
##g0
##freie
##fass
##enste
##eist
##eiche
##chtung
##cat
##bst
##bewe
##berlin
##bed
##aru
##arl
##amb
##ais
##acher
##a1
übersch
änderung
ziele
wurst
wlan
wil
wieviel
wettbewerb
werte
wartet
wachsen
vertreten
verlust
verkaufs
untersuchung
unterschr
tät
transparenz
tourist
titan
tig
thin
taunus
stri
steiger
spür
spri
speed
sonn
some
sigi
ser
sensation
schrei
schokolade
schock
schli
schief
schar
sauber
salz
salat
ried
restaurant
redaktion
rar
rabatt
qualitäts
qq
profilonline
pot
porrporr
please
pisa
pfa
passi
para
ot
organisation
oper
ohren
nop
nervt
nachher
motivation
mord
modern
mhufnagl
messen
ment
med
maurer
löwen
lädt
lächerlich
lorenz
lokal
lehre
lands
lai
krisen
kranken
kongress
kolleg
kohle
kit
kids
kf
kalt
kad
junior
julian
jona
johann
java
iran
investoren
intr
intelligente
insel
innovative
hose
hintergrund
him
hg
heftig
hef
have
halbzeit
grenze
gering
gegeben
frieden
fres
flow
flexib
fie
fckoeln
fal
euren
est
erhöht
entweder
entlas
ela
eindeutig
einb
effizien
düringer
dro
digitalen
diesel
dek
daneben
cle
cheshmatpour
chemie
cap
bzö
bt
britische
brit
boss
bob
blo
bitcoin
bissl
billig
bilde
beschwer
bes
berech
beiträge
begriff
befinde
bedingungen
beachte
bat
basis
aussehen
ausdr
aufgeb
audi
arnefellner
arbeitgeber
antifa
anschl
anlei
angeh
ana
akp
adresse
ada
achte
abo
abgeordnete
abenteuer
87
##9f
##9b
##8v
##8t
##8o
##83
##7d
##78
##76
##6p
##6n
##56
##4u
##4f
##4c
##3d
##2012
##öst
##zr
##zellen
##z7
##yq
##yli
##xb
##wc
##was
##w8
##w4
##viol
##verw
##versicherung
##versch
##ura
##ufen
##tür
##tzi
##tus
##träger
##ties
##tia
##tellt
##such
##stoffe
##stelle
##stau
##stal
##sos
##sent
##scr
##schlag
##schl
##rück
##rq
##rech
##qo
##q9
##q0
##pte
##produkt
##power
##osi
##orat
##onne
##olle
##nummer
##ntin
##nste
##mig
##mberg
##may
##m9
##m0
##lik
##lea
##lba
##kum
##krise
##kons
##komp
##jes
##issen
##isen
##iot
##ime
##i0
##hou
##hma
##heiten
##heb
##gig
##gene
##ewa
##ets
##eth
##ede
##e8
##digung
##dialog
##chk
##cg
##börse
##brem
##branche
##bing
##bildung
##bier
##bewerb
##aug
##ationen
##anzeige
##alis
##ael
überst
übersi
öffentlichkeit
öffentlichen
öffentliche
zweit
zuv
zurückge
zukunfts
zaunbauer
wö
wissenschaftl
wiens
welchen
vr
vorgestellt
verteil
verschw
verschiedene
vermisse
verlie
verletzung
vergangenheit
unterschiedlich
uner
umge
ultra
tt
trenn
track
thermitbomber
temperature
techno
swa
stie
sprach
spiegelonline
sor
sony
sink
singen
sieger
sichere
screen
schw
schließen
schlei
sammlung
sami
sabine
rechnung
reche
quiz
que
prognose
probier
print
polen
pis
phänomen
physik
pension
pb
parad
page
ou
ott
option
oliverscheiber1
normaler
nokia
muskel
mp
morning
monte
monster
moder
migra
miet
michibuchinger
micha
mia
merkt
merke
mem
mathias
mate
lor
lohn
locker
lego
kündigt
kv
kunde
kollegin
knu
kluge
kis
kirch
kehr
kath
jenn
israel
höchst
hummels
hoeneß
hitler
historischer
hinge
hessische
hermann
herbert
heik
hehe
hasen
guardiola
gsi
gs
global
gf
gewissen
getötet
geschlossen
gesamt
genommen
genie
gemeinsame
gedenk
gebor
gage
führungs
führer
freundlich
freis
frecklesfairy
frech
fliegt
first
falschen
fab
europ
ersatz
err
email
eint
einsteige
einiges
eindruck
ecke
ebenso
drachen
deu
dag
chart
chan
ceo
cent
café
bundestrainer
buches
bring
bom
boa
blond
blas
bischof
betroffen
beso
besetz
belgi
befrei
bec
bay
banane
ban
balkon
axel
ave
ausnahme
armen
ao
anspr
anfrage
aj
63
450
202
##95
##8m
##7o
##7k
##6z
##6t
##6a
##57
##4t
##4k
##4h
##4g
##41
##29
##1w
##1v
##197
##15
##0b
##⁹
##ünde
##öd
##ändlich
##älte
##äl
##ädig
##äche
##zig
##ymp
##y3
##wür
##weite
##w1
##verle
##ungsm
##uff
##u6
##tü
##tue
##trä
##trag
##tis
##timm
##stück
##stunde
##stische
##stic
##sser
##sko
##sehen
##sdi
##schu
##sbe
##sag
##saal
##s0
##rse
##rra
##rpo
##rose
##rock
##richtung
##rel
##reite
##rechte
##q8
##profi
##pop
##peter
##ordnung
##orde
##opp
##ong
##ones
##ologie
##nzen
##nea
##ndo
##mot
##mill
##mes
##meri
##mac
##lq
##lichkeit
##lha
##lge
##leitung
##lech
##ldet
##lap
##lab
##kul
##klu
##klo
##kleid
##k0
##iten
##issa
##ism
##isa
##iber
##hö
##hotel
##hig
##helm
##hai
##h3
##girl
##führer
##f2
##eter
##esm
##entwickl
##ensi
##enke
##enhei
##eng
##eller
##ect
##dreh
##cra
##coo
##cn
##chts
##chrift
##card
##bvb
##bab
##ausb
##atur
##ace
übertrag
übersetz
überle
ö1
zweck
zivil
zentral
yoga
wunderschönen
wis
wirk
wehr
walk
wai
waa
vorges
vorbild
vollkommen
viola
verurteilt
vertre
verle
verhältnis
verhalten
verdi
verbessert
vegane
vc
unsich
univienna
uf
ty
tvt
trick
tm
tk
thes
teilweise
tea
tausende
suka
studieren
strasse
strand
stefanhechl
stan
spit
spiels
sperre
sis
sinnlos
session
sender
selbstbe
schwarzen
schiri
ruhig
romy
roh
riegler
retweete
republik
reh
rai
punkten
prüf
prod
plastik
parallel
over
orange
oliverastajic
network
nenn
nedo04
nan
nachhaltig
n0
muß
mq
mot
modu
mitf
minde
mike
mik
meter
meh
maro
mak
look
lobby
liebt
lena
leite
leiser
law
lauter
lager
lag
kürze
kuli
krem
konsum
knack
kleinst
kategorie
jähr
jose
jemanden
jazz
iw
interviews
intelligenz
inside
initiative
immo
hübsch
hoc
herrlarbig
herausforderung
hem
hebt
haz
hass
harb
hannestschuertz
günstige
gw
gruppen
groko
graue
goe
gewerkschaft
gesetze
geme
gehol
fühlen
fö
fuchs
flüge
finn
fernseh
fee
evangelisch
esc
eröffnungs
ers
entspann
elst
einzu
eintritt
einkaufen
eingeb
effekt
eaglepowder
dvd
dol
dist
digiom
diet
dieb
dick
dev
dero
dankeschön
dame
ck
chrom
cb
burn
bundestag
brille
brigitte
brauchst
bim
bilanz
beschreib
berni
berge
behinder
ausz
ausse
aufreg
aufgef
aufb
astr
armenien
amo
alu
alg
aktiv
affäre
76
700
##9x
##9o
##9k
##90
##8q
##8l
##8e
##7v
##6s
##6d
##69
##5x
##5v
##5p
##5f
##4p
##4m
##2f
##28
##1t
##0s
##ückt
##ück
##öpfe
##ären
##ängt
##änge
##änder
##ächtig
##zle
##zia
##yon
##x0
##wur
##woh
##wil
##wig
##usse
##uge
##ufl
##tun
##toff
##tipp
##ted
##tand
##sprech
##sprache
##sit
##sieg
##seits
##sda
##sco
##schwe
##schne
##sbr
##s6
##s1
##rett
##rauch
##radio
##ppy
##pon
##phy
##pet
##paket
##ohl
##ocke
##o6
##nto
##ndlung
##nbe
##n1
##mäßig
##montag
##mau
##manager
##m6
##lix
##lfe
##lev
##lag
##kli
##k8
##juli
##jen
##j3
##ister
##irk
##imi
##illa
##ierten
##ient
##ibe
##heimer
##hard
##gründe
##graphi
##gla
##geln
##gek
##frieden
##freunde
##final
##fei
##fcb
##fakt
##euer
##etzung
##eta
##enge
##einsatz
##eig
##eeee
##ebl
##e5
##drück
##ckel
##chtet
##bru
##besuch
##bek
##ations
##arn
##arm
##aker
##acke
##aca
ägypten
zut
zusammenge
zusa
xl
währ
wunderschöne
wolken
wohnen
wk
wirds
wilde
wiki
welle
wds7
walter
vorschlag
villa
vettel
verwirr
verstorben
verletzte
vergangenen
verbeek
veg
unzu
unseres
unsch
unl
univers
ungew
twittert
twitterer
tool
tokio
tirol
there
td
tattoo
süddeutsche
sänger
sv98
stöger
student
strafe
stol
still
step
spazier
spart
soul
sooo
sit
sicherlich
serv
sens
sekt
schwerpunkt
schneider
schnapp
schm
schl
scheinbar
scharf
sales
rud
rod
riesige
renten
reis
ral
raiffeisen
putz
präs
produzier
position
porto
pon
pod
pfla
otto
ortner
obs
nütz
null
nominier
nico
nehm
nachfolge
nachb
muslim
mittagessen
mitn
merci
meisterschaft
medienp
mathe
massiv
marie
marathon
male
lr
ll
literatur
linke
liebsten
lh
lesenswerte
lekt
legen
las
kriegen
kitt
kinderporno
kata
kaba
jv
jur
journal
jes
jedoch
jar
jakob
jaaa
innere
ina
imzentrum
impress
hätt
hände
hus
hop
historisch
hinaus
highlights
hessentag
herbst
heimspiel
hansarsenovic
gutschein
größer
größe
gratuliere
gleichzeitig
gewöhn
gewiss
gewinner
geliebt
geko
gekla
geiler
friedens
franziskus
flash
fis
fire
ferien
feind
f1
expe
exe
eugen
erlebt
erla
erfreu
eo
entscheidet
einzelne
ebenfalls
durchaus
dschungel
drück
dragon
dokument
dog
display
dark
cyber
consult
chr
cafe
brot
brei
braunschweig
braun
brasilianische
boom
blogs
blogp
bieten
bewo
betru
besonderen
benutzt
benn
beliebte
bauma
barca
aufgrund
assa
asch
ari
are
archiv
arbeitslos
ara
anonym
angr
angez
angeklagte
amt
alfredhoch
akademie
adler
350
2x
196
##9m
##9l
##9d
##8z
##8g
##7a
##73
##65
##64
##5j
##5d
##5b
##50
##44
##1f
##ütte
##ämpf
##ähr
##y2
##y1
##wood
##wett
##wee
##wach
##w5
##vision
##vis
##verlag
##verfahren
##ungsa
##umb
##tüc
##ture
##tto
##tschk
##tos
##tle
##tige
##tiert
##tics
##ters
##tche
##tanz
##taa
##sü
##ständig
##stream
##strat
##stock
##spi
##sou
##slos
##schmid
##saus
##ruppe
##rth
##rochen
##rli
##reck
##rechts
##rass
##problem
##pann
##ova
##ori
##olg
##ogie
##offi
##oer
##ntwort
##nia
##nem
##nbau
##mär
##mmt
##m5
##luc
##liebe
##lieb
##lho
##lchen
##lbe
##lagen
##laden
##kni
##kie
##keiten
##kampf
##journalismus
##jet
##j6
##irl
##invest
##ily
##iler
##ichten
##hos
##hom
##hls
##hack
##gui
##grad
##gnos
##führen
##food
##finden
##fern
##europ
##ery
##eru
##erp
##eiten
##ehlt
##dro
##d1
##cas
##bsc
##brand
##bol
##block
##bla
##bir
##bet
##beite
##bbe
##ata
##anf
##anda
##alte
##alli
##aben
übertr
übel
ältere
zun
zitat
zeitumstellung
zeig
yv
www
wozu
wirft
wertvoll
warn
vorh
volksb
viv
vision
veröffentlich
versuchen
verstärk
verl
verge
verbesser
val
urban
unterhalt
unh
umges
type
treibt
touch
tin
timo
til
thu
thr
tests
tesla
teile
technologie
susanne
sur
supermarkt
stürme
stü
stick
spark
sowie
sommerzeit
solid
skrapid
sitzung
sexu
sekunden
sek
schwi
schweine
schwan
schuss
schri
schle
schenk
rou
roo
revolution
rente
realis
pünktlich
profit
prinzessi
presses
pressef
politisch
planen
pfu
palm
ov
oeh
obst
nom
nintendo
nb
nati
nachhilfe
münster
mögliche
mh370
mexiko
menschenrecht
mannheim
mails
mahl
mah
lv
lott
loo
liveticker
leitartikel
leis
lead
laura
kämpft
kurzen
kritische
klopp
kliehm
klam
kell
kaz
kapitän
jup
jubel
journalist
jer
jax
jau
investieren
interessieren
installier
inse
ichs
hyp
hundstorfer
hun
heimische
heartbleed
hcstrachefp
hage
habs
gust
gum
gründen
grosse
gran
git
geändert
gete
gestalt
gerald
genaue
geistig
gedu
gara
fokus
finanzierung
fig
fette
fat
events
entspr
england
ecclestone
dusche
drucker
corinnamilborn
campus
boateng
biz
bewegen
besucher
besta
beschäftigt
belast
begr
bamb
bag
bach
auss
ausre
ausr
ausländ
ausg
ausbildung
auft
aufgabe
anger
alltag
aktivi
airb
aff
adr
ado
action
abteilung
absurd
abgebr
56
3m
2000
##9s
##93
##8y
##7l
##72
##6v
##6r
##6c
##4q
##4o
##3p
##3k
##3a
##34
##2g
##1o
##1e
##1c
##1b
##07
##üss
##üre
##öö
##ällt
##äle
##ährt
##z2
##y6
##x2
##wünsch
##werfe
##wander
##wan
##viertel
##verwaltung
##vertret
##usg
##uns
##ument
##uell
##uchen
##tni
##tliche
##tipps
##terreich
##terr
##termin
##temp
##tags
##strei
##spot
##skon
##sitzung
##sing
##sfr
##sfa
##schrei
##schmidt
##schle
##s3
##rwa
##rri
##risti
##rim
##rend
##rchi
##rbr
##quer
##q2
##put
##personal
##omp
##omb
##nungs
##nstr
##netz
##nan
##namen
##musik
##morg
##mmi
##misch
##mein
##mak
##ltur
##losigkeit
##logis
##lett
##lein
##leg
##lassen
##kä
##ktr
##ktiv
##kse
##kräfte
##kro
##kno
##kirche
##ius
##ista
##ilder
##ight
##ifer
##iet
##ichtet
##hauer
##haltung
##h7
##h0
##grün
##grenz
##glich
##gier
##gesellschaft
##gert
##geist
##geber
##freund
##fia
##falls
##fabrik
##f6
##f4
##etzen
##este
##essa
##ertig
##erenz
##ennt
##elm
##elde
##eitig
##eff
##eckt
##dition
##dien
##dacht
##dac
##cro
##cou
##cor
##cla
##chä
##chul
##chnet
##chne
##chest
##center
##bnis
##blatt
##bind
##bez
##bart
##baren
##baer
##b6
##aute
##atte
##arf
##apr
##andr
##amer
##achen
überr
öiag
öff
ärzte
älte
zwölf
zentrale
wut
wisst
wirkung
wichtigsten
wic
weltra
weltkrieg
welte
weils
wb
water
vorzei
volk
vm
vize
verschwunden
verscho
vero
verleih
verleg
verhindern
verba
verantwortlich
verabschiede
valley
usw
unwi
unterricht
unt
unre
unm
ung
unendlich
une
uml
trock
travel
toten
tooo
tob
this
teufel
tauch
tast
süds
streiken
strache
stei
steff
starker
sq
spot
spir
sotschi
sorge
sonnigen
songs
solltest
sher
seri
schweden
schwanger
schni
schlüssel
schim
schießt
schieb
scheitern
schaffertom
sara
rust14
rosa
rollerstop
roger
road
risk
rette
reso
release
ree
rasen
raph
ranking
qualifi
qff
qfe
qa
pus
prüfung
programmier
priv
prater
praktikant
planung
pho
perspektive
passen
parlaments
onl
oj
og
neutral
ner
nai
nachfrage
müt
montags
moderator
mauer
mam
malaysia
ländern
luxus
lies
lichte
leichter
legal
lat
lasse
kru
korr
konzentr
komplex
kompa
kommunalwahlen
kob
klinik
kleidung
kk
kfw
keep
kari
jüngste
jünger
joergeigendorf
its
inzwischen
interessantes
illu
iii
ie
händler
hurra
humidity
holland
hiroaki
hervor
herrn
hero
hb
haufe
hannosettele
göt
gurken
großb
großartigen
gross
geschlecht
geschla
georgostenhof
gener
gelandet
gefa
gebr
freib
flasche
findest
finanzier
fieber
feuerwehr
feature
escort
erwä
erleben
erhalt
entwicklungs
entsteht
entsch
enter
endgültig
einzig
einfa
dynam
dresden
dim
deppe
coc
chu
chat
charakter
cam
but
bundesregierung
bundesl
bue
brücke
boersefrankfurt
biss
bir
bewir
bestellt
besseres
besitze
besi
bern
beobachte
beleidig
beleg
bekomm
behaupte
begrüß
beauty
ava
außenminister
automatisch
auswärts
ausst
ausgew
auge
auftrag
aufnahme
aufla
aufges
atem
antr
ankomm
alice
achso
abstimmung
abgele
abgeb
aaa
94
78
67
##8c
##6l
##6f
##6e
##61
##5t
##4v
##3g
##3e
##38
##2h
##1z
##1k
##190
##öhnlich
##ér
##ässt
##zept
##zeh
##z3
##x5
##wurst
##wurm
##wing
##wind
##vil
##versu
##vent
##vel
##v9
##v1
##urz
##union
##ulie
##ubi
##tätig
##turm
##tta
##tst
##tionen
##tha
##taus
##steig
##station
##ssl
##spre
##sig
##sges
##rx
##rrr
##rlich
##rill
##riffe
##renn
##rede
##rbeit
##raße
##rar
##raft
##q6
##pur
##pos
##pitz
##phe
##pfe
##parad
##p4
##p2
##ozi
##ota
##ood
##olu
##olo
##ngst
##nga
##mpi
##mos
##mond
##mode
##mik
##meldung
##mant
##mani
##m4
##län
##luss
##lou
##loh
##lio
##light
##lef
##lee
##lch
##kunst
##kto
##koch
##klasse
##j0
##ire
##igne
##ielt
##ichts
##ibl
##hic
##has
##hand
##glei
##gens
##füh
##ftig
##forschung
##fonds
##fläche
##fica
##feu
##eto
##erste
##erne
##enze
##enti
##enburg
##eihe
##edia
##ecker
##dier
##dere
##ddi
##dda
##data
##ching
##chert
##char
##bue
##buche
##born
##beding
##b9
##b7
##b4
##aufst
##aps
##anis
##anden
##aki
##aar
##a9
übrig
österr
är
zs
yh
wuch
ws
wolfgangk
woher
wikipedia
wesentlich
werbep
weite
wat
w2
vot
vorr
volles
vollen
vog
voest
viertel
vielf
vertriebs
verste
verse
verpassen
vern
vermögens
verla
verkehr
verhand
vergi
verbr
verbi
verantwortung
veranstalte
veh
updates
unglaubliche
umb
töchter
trop
trete
tourismus
tiefe
sympathisch
sup
summ
suc
stör
straßenbahn
stec
starkes
stabil
spur
sportlich
speziell
space
sozgtkrlkh
sne
shopping
shirts
selfies
seg
sebastiankurz
schützen
schäfer
schuerrle
satt
russ
rub
rr120
router
ries
relevan
reite
regne
regens
referen
record
queen
puh
project
poli
pokal
pläd
phar
persönlich
pers
perform
pensions
passagier
pas
opp
oktober
objekt
nir
nick
neus
neun
nebel
nat
nass
nadja
nachruf
nachh
möglicher
musika
muc
moral
mons
monats
modell
minecraft
menschlich
material
mala
magst
löst
lö
lud
logi
ln
lkw
line
leidenschaft
lars
l4ndvogt
küs
käm
kuschel
kuhn
kräft
kroos
kroatien
kriminali
krach
kontr
knie
kipp
kennst
karto
kak
kabel
judo
jt14
jog
jh
jc
ironie
investment
intensiv
integration
insolvenz
inflation
ind
hz
hr3
hofft
hk
hinterh
hinten
hess
held
hed
heb
hamilton
gestartet
gescheite
geräte
gerät
gelungen
geheime
gegessen
gefäl
gefr
gefo
gefl
geburtstags
füll
fuss
freunden
fly
ferdinand
feine
fehlende
fakt
fahn
fabs
experiment
erwi
erwachsene
erwa
ersta
ero
erlei
erkennt
erhöh
erfa
erdogans
erdbeer
epinoesterreich
engel
ends
empfäng
empfi
elfmeter
einigen
einig
ehemalige
echo
dritten
doris
dirk
diplom
diestandardat
dera
dee
dec
dance
cz
comic
bundesbank
buchen
bricht
bewertung
bewegt
betri
betreibe
besuchern
bester
berger
beratung
bena
beck
aviso
automati
auslands
aufmerksamkeit
aufhören
aufgepasst
atelier
asap
armin
architektur
arbeitsplatz
ansta
ansch
ansa
anlass
anal
aka
agr
adam
accounts
abseits
able
64
53
3052pl
194
##8a
##7x
##79
##6x
##6w
##4w
##4j
##3o
##3i
##2d
##1l
##1i
##1g
##0h
##ünd
##ää
##ärm
##ärk
##zet
##zeichnung
##yin
##yes
##x9
##x3
##wend
##wall
##wac
##vertei
##versi
##vern
##verg
##vea
##v4
##v3
##ukt
##uit
##uda
##ubli
##tzk
##treffen
##trai
##tori
##t7
##steh
##stan
##ssin
##splatz
##smin
##schwei
##schul
##schra
##schläge
##schie
##sbes
##sberg
##saison
##ränk
##rzt
##rob
##rman
##rischen
##rgen
##reiche
##rege
##rbo
##r7
##r4
##pse
##projekte
##plane
##pil
##pielen
##p7
##o2
##ntie
##nlin
##nko
##nker
##nas
##nac
##mst
##mpfe
##mob
##mmy
##mitt
##meldungen
##meisterschaft
##lück
##lst
##lsch
##link
##lesen
##lern
##leite
##lehr
##leh
##lay
##kreis
##koller
##kist
##kate
##kast
##kai
##job
##iva
##itier
##ios
##iede
##iebe
##ider
##ics
##i9
##hes
##hase
##halte
##h8
##h1
##größ
##grafie
##gli
##glaube
##geschäft
##gerichts
##gema
##gem
##geg
##g8
##fäll
##fiz
##fic
##fas
##f3
##esa
##erm
##endes
##elh
##ekti
##ekr
##eka
##eigt
##ebi
##duell
##dne
##dler
##demo
##cut
##cont
##chli
##c3
##bich
##beratung
##aur
##arbeite
##anp
##anja
##anage
##abt
##aaaa
überzeugt
überwi
überw
überm
überb
zuständ
zulass
zul
young
yay
xbox
wärs
wäh
witze
wirbt
william
wies
widerstand
werfen
wend
welch
weck
webinare
wagner
wachstum
vorsitz
vorarlberg
vodafone
viennesegooner
verä
verze
verteidige
versicherung
versehen
verschwörung
verre
verlosen
verkehrt
verhandelt
verha
vergeben
verfü
uw
urspr
urlaubs
ups
unw
unterhaltsam
unterg
universal
under
umgang
töte
tippe
times
thre
thor
tho
that
tante
takt
taf
syrische
swe
stö
strecken
stin
stefanie
statement
staatss
spätestens
sprung
spion
sperr
speicher
skyliners
sin
silicon
signi
siegen
siege
schönsten
schreibe
schnu
schmei
schme
schir
schalte
santiago
sanierung
salzburger
sachsen
rüh
röm
ry
russe
runn
ruh
rubin
ric
review
rettet
reservier
religion
registrier
rechtsextrem
rechten
rechnen
rebell
rapp
pä
prost
portal
pinke
pfingsten
pfi
peres
penn
pai
packe
ohh
oegfe
och
non
nn
nig
nagel
márquez
musiker
moritz
mono
mitbring
missf
meistens
meinungs
meid
medaille
matura
match
mariogoetze
mare
marcus
malt
mage
lösungen
lösch
lm
libr
liberal
lest
legi
landwirtschaft
köp
ky
kunsth
kt
krist
kosak
kontin
konsequenz
konrad
konjunktur
kommissar
koalition
kleider
kindergarten
ken
kd
katholi
kater
katastrophe
kanzler
jul
jon
jollysea
jok
jb
jane
islamist
isa
investition
innenst
indie
illegal
ignoriert
hängen
hotels
hoff
hochs
histor
hera
helpsyriasrefugees
helden
hats
hangout
hands
handelsblatt
gänse
grödig
grin
gor
getan
geschw
george
gemüse
gekü
gehören
gehst
gegenteil
gefährlich
geburt
gebiet
gear
garcía
gall
füße
freihandelsabkommen
franzs
flie
fitschi
fests
felix
feedback
farb
exklusive
ewig
euros
erledig
erhältlich
ene
einn
egomane08
eas
drückt
drop
dre
dingen
digitalis
deutsches
depressi
deme
davor
commerzbank
comeback
come
chic
charme
cath
cast
capt
capo
camp
bär
bundesländer
breaking
brands
blöde
blutundkaffee
blogeu
birthday
bildern
bike
bezieh
bewe
bevorzug
betriebe
beton
benjamin
bedeutung
beda
becke
bc
baus
bauern
basi
barr
autofahrer
ausste
ausführ
aufruf
att
arbeitnehmer
antworte
antisemitis
anspruch
anschluss
anrufe
angelika
anarchi
amer
ahh
adventure
absolviert
absatzzeilen
abb
020
##9z
##8u
##8h
##85
##7i
##666
##5l
##55
##51
##4r
##3j
##35
##2t
##014
##000
##ühl
##übers
##ötchen
##ög
##äte
##äm
##á
##à
##zwi
##zul
##zne
##zic
##ych
##y8
##wärt
##wolf
##wissenschaft
##w3
##verständ
##ved
##urb
##unda
##twic
##tma
##titel
##teilen
##szen
##sty
##steller
##stad
##sste
##ssta
##sso
##spra
##spiegel
##sph
##sort
##slimani
##sive
##sitz
##shop
##setzung
##schna
##schmerz
##schk
##schin
##schaften
##räu
##rup
##rige
##rif
##rhein
##reporter
##rem
##redakt
##rechne
##ration
##piele
##pflicht
##pfei
##pea
##paper
##p3
##ovi
##oria
##ordne
##omie
##oes
##o8
##nutz
##nse
##noch
##nkl
##ngli
##nett
##ndr
##ndern
##mung
##mess
##mate
##mache
##lustig
##lly
##liz
##list
##lische
##leu
##lade
##kut
##kter
##kten
##kritik
##kovic
##kino
##kay
##katze
##jä
##jekt
##izier
##ims
##ils
##ilen
##ikat
##igkeiten
##ieu
##ido
##ici
##häuser
##hur
##hoo
##hler
##hek
##hal
##hae
##gun
##ging
##gest
##g3
##fuß
##foto
##flas
##feier
##ewer
##ewe
##eug
##erman
##enr
##enl
##elbe
##eits
##eira
##eife
##eier
##eee
##durch
##dsch
##dorfer
##design
##dei
##dar
##d8
##d4
##ckenberg
##cial
##chsen
##chb
##chan
##cess
##c1
##butt
##brücke
##bor
##bod
##beu
##beau
##bac
##b0
##awa
##aussch
##angebote
##andel
##amu
##ament
##alp
##alo
##akr
##ada
##aba
##a8
übl
überleben
überl
öffnet
öffis
zü
zwitscher
zustand
zk
zitier
zigarette
zielg
zentrum
zensur
zeitge
zdnet
zahlreiche
xa
wört
woran
wohnungs
whatchado
wenden
weltb
weine
weih
weiblich
week
webs
webd
warnung
vorst
vorrat
vorfreude
vis
videoc
vic
vertrieb
verte
verstecken
versag
vermögen
verfolge
verfa
verbu
unnötig
umste
uli
u6
tsv
tränen
transport
traff
topf
thx
theoretisch
thai
ten
tempor
tempe
teilnahme
take
suppe
suns
summer
stür
stronach
strahl
sternen
steg
stat
stande
spreche
spl
soz
sna
sma
sj
sinnvolle
simp
silvileo
seelen
schüsse
schweins
schreibtisch
schnitt
ross
rolandgiersig
roboter
robb
rn
rich
reu
rese
repl
reiß
reifen
regelmäßig
redakteur
rd
rak
radfahrer
pv
punk
publi
profess
probe
pran
poechinger
pn
pink
pick
pfo
peters
patrickminar
outfit
organisier
optim
onk
onatcer
ogh
nächt
nutz
norm
niko
neul
negative
nachhaltigkeit
nachdenken
möglichkeiten
mv
mourinho
mont
moin
moh
mmiedl
mittelstand
mittelf
mister
meld
lüge
liked
liege
leverkusen
leiden
lec
lebenswe
lebend
laune
laser
kü
kund
kontrollier
konkurrenz
komplette
kompetenz
kommentier
kombin
koll
kof
klu
klassische
khedira
keks
kb
karsten
kapier
kandidaten
kack
jü
jz
journalismustag
josefbarth
jos
jma
jchristandl
ix
ivibleibt
interp
insp
ingrid
informieren
informations
individu
idioten
hur
hinweise
hins
hetz
herzliche
hertha
herrvanbohm
haftungsboykott
haa
größere
grunds
gries
grandios
gip
gif
geschossen
gerücht
gepr
gepfl
geling
gelb
gefeiert
gefangen
gebraucht
gag
freiwillig
französische
formul
ford
flü
fj
faust
fahrg
exi
europap
erwischt
ersetz
erre
ermöglich
erleb
epi
entg
elen
einsparungen
eingestellt
eigenes
edit
dunkle
dun
dru
drohnen
dose
diem
devise
derb
dennis
def
dav
cv
cry
coo
conn
conf
claudia
clau
christin
chinas
chief
channel
center
cache
bunt
btw
brach
bn
bleibe
blei
bissi
biat
bezahlen
bestätig
bestell
beschi
bert
bemerk
bem
bell
bekenn
beeindruckend
bee
bd
baumax
balle
automo
autobahn
ausgeh
aufste
aufklärung
aufk
aufgest
arti
armut
anwend
anste
ani
aneurer
andy
amerikaner
american
after
acc
abp
66
2009
1001
##8d
##6y
##6q
##6o
##6m
##5y
##5q
##5c
##33
##2z
##2b
##2000
##1d
##0z
##0p
##0e
##üng
##ücke
##österreich
##örter
##ç
##äumt
##äufer
##änger
##ählt
##ähig
##zähl
##zwei
##zust
##zun
##zeuge
##z8
##z6
##y9
##y5
##xen
##x8
##witz
##wirth
##wiese
##waffe
##von
##vik
##verbind
##uzi
##uun
##ustri
##uppe
##ungst
##ungsp
##ungsg
##undi
##umm
##ufer
##uert
##ueh
##tzl
##treten
##trend
##traße
##tran
##til
##tem
##teh
##tasche
##tak
##tai
##t3
##sze
##svo
##studio
##ssion
##srat
##spräsident
##spro
##sperr
##spec
##sof
##sfl
##schön
##schn
##schic
##sba
##satz
##sacker
##s9
##rnd
##rieb
##rein
##reche
##rakti
##r8
##qc
##q7
##prüfung
##prise
##pink
##pfla
##pens
##ows
##owi
##ots
##orit
##orin
##onie
##oler
##olen
##ohnung
##ohlen
##ogn
##ogi
##ofer
##obil
##ober
##nme
##ngr
##ndnis
##ndlich
##ndl
##nau
##mue
##mml
##mina
##med
##max
##mara
##map
##mag
##m7
##lö
##lätze
##läss
##lungs
##lth
##lov
##lom
##lme
##lma
##life
##lif
##lec
##lde
##lange
##lai
##l5
##kün
##kne
##klär
##kern
##journalist
##jam
##j5
##itä
##iste
##inf
##inden
##inal
##ima
##iefer
##icu
##hon
##hea
##hage
##h2
##graf
##gha
##gerät
##geno
##gefüh
##ged
##ften
##flug
##fisch
##fig
##fft
##fert
##fact
##ext
##ever
##eva
##etter
##esi
##erma
##entin
##enberg
##egt
##ega
##eer
##dige
##demi
##ded
##dau
##ctr
##crim
##chuss
##chtige
##chaue
##bx
##bou
##bis
##betr
##besitz
##bbl
##bbel
##bahnhof
##avi
##ausch
##aph
##anwalt
##anken
##achs
##able
überna
ü
öffi
zwangs
zuschaue
zl
zinse
zin
zen
z7
yline
wüte
wärme
wundert
wlv
wko
wichtiges
wichtigen
westf
weste
wesen
vorzu
vore
vord
voice
virtuelle
viertelfinal
verur
verti
versprechen
verpflichte
verni
vermiet
verfügung
verbl
verbiete
unterzeichne
unterschreiben
unterscheide
unterb
umgekehrt
umgeb
u23
tödliche
turb
tune
truppe
traurige
tors
toler
toenz
tierschutz
tic
than
taz
tageszeitung
tabelle
symbol
sui
sugarzomb
subs
strateg
stich
stets
steiermark
startups
sprü
sprachl
spon
spekt
sonntags
sonnenbr
sonders
soldaten
solar
skysportaustria
sku
singt
sf
september
sep
selbstge
sehenswert
scy
schönbrunn
schwerer
schrecklich
schreck
schlimmste
schenke
schad
scf
sanktionen
rückblick
ruhige
reporter
renovier
reisetag
reduziert
rechnet
rache
quartals
psycho
provi
protestieren
prok
progr
poten
posti
posc
pos
pool
poi
pläne
photos
pei
pd
paw
panda
ow
orga
oberst
nutzt
nove
nis
nimm
nieders
neugierig
neubau
nest
nachvollzieh
müsst
myst
mw
mun
movi
moc
mja
missbrauch
mineral
mim
mill
mile
michi
meet
maxim
massa
martinthuer
maps
mais
mahü
lösen
logisch
lizenz
listen
linken
liefert
level
lehnt
laufend
lack
lacht
krebs
korruption
kopie
konnten
koni
kommuni
komische
kolumne
klingelt
klassik
kassel
karmasin
jährigen
juliap
jonny
jol
jmarchart
jean
janu
iwa
inva
interaktiv
intell
inklusi
imperial
hut
hood
hochg
herzi
herausgeber
heisst
heirat
hbrandstaetter
hausbesetzer
hausa
happ
hal
h9
gva
guide
gruß
greif
gram
got
gos
gol
goal
gntm
glückliche
gleichen
glatt
geöffnet
gezei
gewerb
gestri
gesprochen
geräu
genießt
gemüt
gekl
gehackt
gefährliche
gaw
gami
förderung
fx
fröhliche
franziska
fortschritt
forderung
fluch
flor
flau
flagge
feste
fazi
expert
ewige
etatat
erzähl
erweitert
ertr
erstelle
erkenn
erfahrungen
enttäuscht
entschieden
endl
empörung
emi
elektroauto
elegan
einsti
einste
einr
eingetroffen
eingesch
einf
egg
eber
e8o
dus
dreie
dominik
ditech
diktator
dickeeier
desse
derwa
deni
deflation
daraus
cw
cooki
conchita
comme
cia
cann
burgenl
bundespräsident
bundeskanzler
bräu
brise
brenn
brems
break
books
bird
billige
bildungsministeri
bh
bezeichnet
bezeichn
bezahl
bestimmte
bereitet
benz
benutze
behandel
begrü
begeh
befa
beer
bedroht
bedr
bedenk
bearbeit
beach
batt
ballhausplatz
bah
ax
auswirk
ausw
aussicht
ausgleich
ausgerechnet
ausgeg
aufregend
aufgewach
aufgaben
attraktive
atte
athe
ash
arschl
armee
arbeitsp
arabi
appell
anrei
anha
angeme
angeli
angekündigt
anfangen
anbieter
anbiete
amts
alternativen
ald
ala
aktualisiert
agi
affili
admi
absicht
abschl
absage
abga
abg
abendessen
84
79
2010
1x
##9r
##9c
##7y
##75
##62
##3t
##2u
##1y
##1u
##1h
##199
##ütze
##öt
##äufe
##äglich
##äck
##zio
##zif
##ziehen
##zess
##zek
##vad
##uuuu
##update
##unternehmen
##umen
##ulat
##uelle
##uder
##u2
##tände
##twit
##trau
##tert
##teilig
##teiger
##ständ
##stisch
##stie
##stheor
##stern
##ssung
##sstu
##sprin
##sorg
##skl
##sik
##sign
##sheim
##ses
##semi
##schr
##schnit
##schenko
##scheid
##sber
##sak
##rut
##rtrag
##rtig
##rstattung
##rken
##rgy
##reib
##r2
##quote
##pru
##probe
##pot
##pfi
##paul
##pas
##packe
##pac
##p1
##oun
##orien
##order
##oper
##ook
##olve
##ogr
##o9
##nzi
##nor
##nnte
##nitte
##nien
##ngel
##ners
##nent
##nai
##n8
##mba
##mari
##mangel
##mand
##lüss
##lü
##luj
##loo
##loge
##llung
##lim
##lies
##led
##könig
##kran
##kott
##kopf
##konzern
##klub
##kka
##kinder
##kerb
##kass
##kand
##k2
##jahn
##j7
##j2
##ival
##ital
##isse
##irt
##irr
##inke
##inier
##inho
##imp
##igs
##ift
##iese
##idig
##idee
##höhe
##hro
##how
##hoe
##hnen
##hlt
##hlo
##hip
##heits
##hee
##hah
##hab
##gott
##germa
##gemei
##gege
##game
##g7
##g1
##fut
##freundlich
##frauen
##fragen
##frage
##fon
##flieg
##flicht
##fil
##etzungen
##erv
##erke
##erinne
##erche
##enta
##energie
##empfehlung
##eif
##echs
##ebu
##ear
##e4
##dus
##door
##ditionen
##dir
##diert
##did
##deu
##dert
##denkt
##denk
##dea
##corn
##come
##chü
##chlagen
##ches
##chei
##c7
##c2
##bogen
##bewegung
##bew
##berla
##barkeit
##atze
##arzt
##aming
##ami
##alb
##aka
##ahren
##ahme
##afrika
##afi
##ache
##abo
##aaaaa
##a3
überzeug
überrascht
überlegt
ökonomi
öffentliches
ät
zür
zuwa
zuletzt
zombie
zig
zeits
zeichn
xk
würzburg
wos
wolfs
willen
wieneri
weile
wea
wandern
wahlbe
vorwürfe
vollst
vollg
volkerplass
volker
vk
vio
vg
vf
verzichten
verspricht
verrat
verme
verlänger
verliebt
verhandlungen
vergeh
verga
vereinbar
verdr
verarsch
unity
ungl
ungar
unerträglich
unan
umzug
umsonst
umgehen
ulrike
uff
u4
türkisch
tsche
troll
trainiert
tn
thomasoccupy
theo
teller
tc
taub
tabellen
t9
surf
steinh
steine
stehe
standards
stadtr
spenden
spann
sow
source
sorte
somit
solltet
sog
smo
skoops
skispr
sinnvoll
sif
shin
shake
seltsame
selbe
sege
seeandeat
schürrle
schätze
schäd
schwu
schwachsinn
schuh
schreien
schneide
schlau
schiedsrichter
schach
satellit
sas
sant
sander
samstags
samm
s5
rus
rundu
rufe
roy
ron
romanti
richard
rezension
restl
rekordtorschützen
rausge
rauchen
rast
rassistisch
rassismus
rass
rasch
quat
quartal
qr
prüfe
proteste
produktion
probieren
porti
popul
poe
podium
php
pfeif
pes
persönlichkeit
pek
pea
patri
patient
patent
parti
osterge
org
orde
opera
oll
nz
nw
nude
norde
noi
nm
nikola
nicole
neuw
neuigkeit
neuholder
neuem
nei
nebenbe
nav
natürliche
nationale
märkte
männlich
musicmat
montagsdemo
mobilit
mksgraz
mitbe
ministeri
meeting
mecha
mass
mas
mae
maclemon
mabogsi
lärm
läch
lux
lostformat
lost
lobbyis
linux
linkedin
lib
lia
leucht
lesung
leon
leh
legend
lav
laufe
langer
künstliche
kümmer
kühle
kub
krimin
kooperati
koo
konserv
konkrete
konk
kommunikations
koenig
koche
klos
klinge
kindle
kett
kerstin
kaufm
kathrin
kant
jue
josefs
jetz
jen
jaja
italienisch
ita
investiert
informati
image
ili
höchsten
häu
huch
hosen
hors
homöopathi
holger
hochschul
hobby
hinz
herstell
herrsch
hausbes
hauptst
hannes
hafe
hacken
gul
guardian
grus
großst
grill
gna
gli
gewusst
gestalten
gesi
geschäftsführer
geschichten
geno
gefühlt
gefährde
geda
gebrauch
geblockt
garn
garantiert
gala
frühere
friedl
freak
foe
florid
flam
firefox
figur
festgenommen
feines
feed
feder
faszinier
fake
face
existenz
ew
euhaus
eugenafreund
essl
erwe
erreichen
ernährung
ermittl
erkennen
erfinde
epic
entscheidungen
enthüllt
entfe
entf
enge
emir
elisabeth
elektroni
eintrag
einbr
ehre
eder
dünn
durchschnitt
duf
dub
drücken
dreis
dpa
dos
dominier
domin
diät
disney
direct
diff
derh
demokratisch
defe
daz
darm
darin
cru
cour
corp
cooler
contentmarketing
const
classic
chefs
challenge
causa
cari
c3o
c1
bös
bush
bulle
buchha
brüder
brus
boh
blogge
blockier
bisoux
bikini
bewusstsein
bewerben
bette
betroffene
betreu
betrachte
besp
beschr
berühr
bequem
beides
begriffe
begleite
befürchte
befrag
beeinfluss
beein
bean
beamte
bauer
banke
australie
austausch
aussp
aussieht
ausma
aush
ausgezeichnet
ausgel
ausgef
aufwärts
aufstiegs
aufsichtsrat
aufre
aufp
aufgeregt
attac
atletico
atl
astron
assi
arbeite
appetit
anka
angesp
anfäng
analy
amtsgeheimnis
alters
allerg
aktivisten
aggressiv
add
achi
abonn
abgest
abfahr
abd
abbau
88
86
201400
2011
1f
##9v
##8i
##7p
##6j
##6i
##5r
##5n
##5e
##4x
##49
##47
##46
##3y
##2i
##2e
##0k
##0g
##0d
##üst
##ührt
##öne
##öhung
##öde
##äume
##ästi
##äfte
##äf
##züge
##züg
##yste
##ycl
##yan
##wö
##wung
##world
##witt
##wissen
##wes
##werte
##werde
##wede
##w0
##vot
##versorg
##verf
##vat
##v6
##uto
##urc
##unic
##ungsf
##ungse
##unge
##uie
##uhe
##ues
##trie
##tric
##trainer
##tob
##ticket
##tell
##tbar
##tandard
##swo
##svor
##stw
##stimmung
##stellt
##starte
##spur
##spla
##spin
##span
##soe
##sna
##sieren
##show
##setze
##schüt
##schuhe
##sache
##sac
##s5
##räge
##rungs
##ruhe
##ruck
##rtn
##rsp
##rick
##rhe
##rha
##rev
##reme
##ree
##rdert
##rchen
##rait
##r3
##quis
##pä
##pun
##pple
##pph
##politisch
##pis
##pir
##pieler
##pek
##papier
##p0
##orga
##opi
##opa
##onste
##oeck
##oba
##o0
##nö
##nzl
##ntw
##ntn
##ntag
##nol
##nfu
##nfo
##nba
##name
##n4
##n3
##mög
##meti
##meh
##mbo
##mbl
##lös
##läuf
##lse
##logie
##lmann
##lima
##lieg
##lichkeiten
##leute
##lep
##leiste
##law
##laufen
##l7
##l1
##käm
##kunden
##ktuell
##kreu
##kratie
##konf
##kofe
##kna
##klin
##kani
##jun
##jag
##istische
##iou
##inse
##inia
##inder
##ign
##igier
##ierende
##icon
##ibt
##hunde
##huber
##hora
##hnu
##hlu
##hlich
##hit
##hir
##hia
##hba
##hacke
##guck
##grub
##gol
##glied
##gers
##geil
##gau
##g14
##fü
##fung
##frist
##fres
##finale
##ffie
##ferns
##fang
##f9
##esser
##eso
##esign
##ersp
##ergebnis
##erbe
##ents
##enter
##enp
##engla
##emp
##eile
##ehu
##egation
##ecke
##echni
##dtf
##druckt
##dow
##dog
##dner
##dam
##czek
##crem
##cre
##cie
##chwei
##chung
##chro
##chig
##chicht
##checkt
##c9
##c0
##bür
##bär
##bringe
##boc
##blogg
##blic
##blau
##bisch
##bete
##bere
##beitrag
##bat
##basi
##auser
##aufen
##atr
##ative
##ash
##artig
##arsch
##arkt
##arisch
##arg
##api
##anch
##ames
##alm
##ales
##aege
##aco
##abb
übernehmen
überholt
österreichischer
ändert
zusammenarbeit
zir
zick
zf
zert
zerstört
zerst
zel
zap
zahnarzt
youfm
yea
wü
wy
wra
wohnt
wirtschaftliche
wintertagtraum
wim
wieviele
widerspr
whis
werks
werben
weiters
weinen
wechseln
wacker
vox
vorurteil
vorteile
vorhan
volksw
vieler
vh
vfgh
verzweif
verweiger
vert
verständnis
verspätet
versi
verschwend
vernünft
vermute
vermitt
verkü
verkehrsunf
vergn
verbreit
varia
vale
unmöglich
unbes
unbekannte
umstrittene
umbau
ultimat
ulm
ud
u12
tü
täglichen
trennung
treibe
treffer
traumh
trai
tp
toilette
tiroler
them
teso
telefoni
teilz
tausend
tausche
tanja
tan
synd
supa
struktur
streiten
stoppe
stellung
stellenangebot
stati
stasi
staatliche
spielplatz
spielber
spider
spezialist
spende
spei
spannendes
spanische
sozialdemokrati
sosasyl
sos
solls
solchen
sob
slow
ske
siemens
sicherheitsl
shar
sexis
serbi
separat
senk
security
schwin
schwache
schne
schmie
schlepp
schießerei
schieße
schicksal
scheisse
schauspiel
sanc
sammelte
sammelt
sack
rüsselsheim
rückkehr
rz
round
roland
robo
rmabvb
rick
richardschmitt2
repression
renate
remix
religions
religi
reiseb
reini
reichweite
regisseur
rechtzeitig
raten
radl
rac
qw
pub
präsentieren
profitieren
professionelle
probleml
prima
pressera
praktikum
playstation
plac
petrapichler1
peterk
pend
past
passend
pala
ortszeit
organi
onlinema
oliv
ola
offens
oerv
odenwaldschule
nou
nos
norwege
nordkorea
nit
nimmer
nils
niki
niederösterreich
niederla
ng
neusta
neua
netzwerke
nel
namens
nachlese
n2
mörfelden
mönch
myt
mufc
mozilla
move
mountain
motiviert
mone
modelle
mob
mitfahrgelegenheit
miteinander
mis
mindestlohn
millionärssteuer
mies
mfa
menschheit
maximal
matthiascremer
masch
marburg
mannschaftsfoto
manda
läng
lut
luis
lot
loewenfrankfurt
little
liter
lip
lief
lieder
liannaelea
lesetipp
legende
leere
ld
lap
lak
lade
königs
kz
kyra2001
kunsts
kundenbe
kreuznach
kreditk
kostenfreie
konto
konsta
kommende
kollekti
kok
kne
kn
klär
kilo
keinem
katrin
kate
kassie
kardi
kapitalis
jurist
jt
johannaczekay
joge
jll
jeweil
iso
iron
integ
inspiration
insider
ingenieur
ignor
ign
ideale
ideal
hühn
hättest
hust
horror
honig
homburg
hochw
heul
heru
hello
helfer
heis
heinrich
heims
heidelberg
heart
hc
hasi
handelt
hamm
hahn
günt
gron
grillen
greift
graf
goo
goi
glueck
globale
gir
giorgio
gil
getro
gesunde
gestrigen
gestiegen
gesta
geschickt
gerecht
gepa
geniales
geniale
gene
gender
geführt
gebühren
gebl
gebaut
ganztagsschule
gallus
gabs
future
funke
frühjahrs
frühen
frö
friend
freig
flip
fließ
flex
fink
fina
fili
fichte
fic
feat
favori
fanta
fachkr
export
exc
ethi
esp
eschb
erwähnt
erklärung
erfunden
erfor
erfolgreiches
erei
entspannte
entschuldig
entfall
emm
emanz
elm
einzigartig
einricht
eingef
einführung
einflu
einblick
eigener
edel
dämlich
duisburg
duck
drittel
drinne
drehen
dreck
dramat
diver
diskriminier
dil
did
develop
desk
designe
desast
denkst
dei
dahinter
creat
cof
clea
chron
chl
chinesische
chines
carfreitag
cand
bx
bundesw
buchtipp
bronner
brech
braut
bombe
bochum
blieb
bitten
bildungspoliti
bil
bewä
bevölkerung
beta
bestimm
beschloss
berühmte
behalte
begeister
begegnung
bedank
basketball
bale
backe
ay
autoren
auswahl
ausverkauf
ausschließ
ausprobieren
ausger
ausfa
ause
auflös
aufgeführt
assisten
arsen
ark
anziehen
anzahl
ankl
ams
altb
alpe
allgemein
alexa
akzeptier
aku
aktuali
aktivität
aig
aho
abschaff
abgese
93
92
82
195
##9y
##9a
##8w
##8f
##6g
##3z
##2r
##ürt
##ürdi
##öv
##örde
##öm
##öck
##ó
##äuf
##äten
##äppchen
##ängen
##änderung
##ältig
##ällig
##ägt
##äe
##ädt
##ßb
##zien
##zehnt
##zeg
##z1
##yri
##ynn
##ymar
##xle
##wus
##wohne
##wochenende
##wische
##wick
##watch
##versta
##verst
##veranstaltung
##v2
##utt
##usk
##urbe
##unters
##unterg
##unglück
##unf
##umw
##umf
##uldig
##uld
##ugo
##ufe
##uerlich
##uar
##u5
##täusch
##tzig
##tscher
##treib
##treffer
##trac
##tow
##toria
##tore
##tiv
##tisi
##tiger
##ticker
##than
##tato
##tab
##swi
##stö
##studi
##strom
##stab
##soph
##som
##smann
##sleit
##siege
##sgr
##seller
##sdate
##schü
##schrift
##schlu
##schitz
##rüf
##ruit
##rti
##rme
##rmat
##rka
##ritte
##rinnen
##renz
##reit
##reife
##reibe
##rais
##qualitä
##putz
##pst
##prung
##poi
##player
##platte
##ping
##pflege
##pfa
##own
##oris
##ordi
##ordert
##oppe
##oooooo
##ohne
##oft
##obe
##o7
##o4
##o3
##nwe
##nver
##nut
##nus
##ntra
##nso
##nsi
##nra
##norbert
##niel
##nicht
##ndt
##ndra
##nderung
##nag
##mlin
##ministeri
##meter
##meta
##mens
##marketing
##mah
##lüge
##länder
##loss
##llu
##lling
##lerin
##lekt
##leid
##lehrer
##lder
##kow
##klas
##keller
##kant
##kammer
##jährigen
##jose
##jak
##itner
##irie
##ipe
##iol
##inha
##inc
##inander
##igi
##igat
##ifin
##iele
##iehen
##ibas
##häus
##händler
##hält
##huh
##hts
##hot
##hmu
##hinter
##hende
##helfe
##hein
##hef
##haut
##gungen
##grou
##gne
##gewinn
##geo
##genh
##gefahr
##gebiet
##g4
##förderung
##fähr
##ftung
##freak
##forsche
##fla
##fis
##finder
##fenst
##farb
##fant
##fache
##f7
##f5
##exper
##eun
##etti
##etr
##etent
##ervi
##ersa
##eric
##erhal
##erfo
##enen
##enar
##elp
##elo
##eku
##eibt
##eder
##eden
##ebel
##dok
##dite
##direkt
##diger
##deuts
##derm
##dera
##days
##cqp
##ckin
##chsel
##chas
##chao
##chalte
##cel
##büro
##but
##bruch
##brie
##breg
##blumenau
##bili
##betre
##berate
##beit
##bef
##beer
##bee
##ausga
##auen
##auber
##aube
##atische
##atis
##arin
##arbeits
##apu
##anten
##anl
##aner
##andie
##analys
##ams
##alti
##alk
##akte
##affen
##acken
##achte
##abst
##abor
##aat
überzeugender
überp
überh
öffnen
zählen
zuviel
zusätzliche
zustimm
zusammenhang
zunehmend
zuhören
zuh
zoll
zocken
zitter
zeitungs
zeitp
zal
yelp
wüsst
würdes
wwiederstein
wsjgruender
wood
wiwo
witt
wirtschaftsb
wienmiete
westbahnhof
welta
weid
weiche
wegg
way
wachstums
vö
vz
vorte
vorschläge
vorg
vorbereitet
vollz
vn
vimeo
vieles
vgf
veränderung
verzichtet
verun
verstand
versp
verschlüsselung
verr
verpac
vermei
verlos
verhinder
vergleichen
vergiss
vergew
verbringe
verbrenn
vei
vegetari
vb
vatikan
vass
urheberrecht
unv
unterschrift
unterhose
unger
umar
ukrain
uebe
täte
tsg
tria
transp
tram
tow
tools
tomate
tmi
tina
therap
theor
thaler
tende
tempo
temperaturen
telefonieren
tel
techni
tatsa
sücht
säu
syndikatsve
suf
stört
stärk
studium
stru
stoff
stille
steuerzahler
starken
stag
spuren
sprit
springer
sprachen
sportl
spitzenkandi
spekul
sparvor
sparkassen
sorti
soph
sonnensch
sonnens
solidarität
sofa
slo
sib
shor
share
shab
seve
selt
selbstverst
schütte
schöpf
schäu
schweigen
schweig
schwarzer
schum
schulte
schnelle
schnee
schien
schie
schicke
scheiter
satur
sarah
sala
sags
rüst
rübe
rudol
rostock
rohstoffe
rind
rig
riecht
richte
repar
rela
reins
regionall
regier
rechtss
raven
rati
rana
rain
raff
quart
quali
ql
qg
pwilhelmer
put
psycholog
psychi
provis
prov
produktiv
produktions
posten
portugal
porträt
poro
polnisch
poke
podcast
player
pik
philosophie
phantom
phantas
petz
pau
pataxó
passende
partners
paro
pand
pade
pad
oö
osterwochenende
orientier
opti
oevpwien
obert
ntv
notfall
niemanden
netzpolitik
natas
nachtr
nachbarn
monika
moni
moe
mittern
mittels
mitm
mitl
mitbekomme
mirk
ministerin
milliarde
mid
method
metall
messi
merte
matte
mask
maschinen
market
marg
manipul
machte
m0
lum
lounge
long
loca
lilie
lewandowski
lesefreu
leisten
leiche
leckere
lautst
laute
laun
kühlschr
kurzf
kulturm
kugel
kritis
korb
kopfhörer
konstrukt
konkurr
kompliz
kommunal
komisch
koffer
knappe
klimawandel
kleinweich
klapp
klan
kirs
kau
katar
karo
jörg
jx
jura
journalisti
joch
jn
jene
jemals
jbru
jay
japaner
jap
james
jak
ists
isst
isabell
iri
irgendeine
ire
internationalen
instru
instal
insgesamt
innerhalb
inha
infrastru
information
indisch
indianerstamm
ikea
identitä
höwedes
hässlich
härte
hyper
huber
hub
hou
hosiner
hos
homosexu
hf
heutzutage
heu
het
heiz
heiligen
hee
hdrr
handl
hanau
haltestelle
hals
hahahah
hacke
gült
gäb
gx
gud
gsch
grö
grundlage
gripp
griechisch
gratulieren
grab
glückstanz
ginge
gewünscht
gewohnt
gewo
gesun
geschm
gesche
gerdahillebrand
genannt
gelten
gell
geli
gelds
gelau
geistes
gehalts
gehalten
gefän
gebloggt
gea
gap
galeri
gaa
fünfte
fähig
fut
fresse
frauf
frankfurts
fraktions
fotogra
fors
flüchtlings
floh
fleck
fixier
filmemacher
ferr
feminismus
feminis
fasc
fas
fantasti
fahrzeug
fahre
ewigkeit
evi
euk
eugh
eu2014
erziel
erweiterung
erwartung
erschienen
erscheinen
erneuer
ermittlungen
epis
entwickel
entspannt
entschuldigung
entschl
entführt
entfol
entfernt
entdeck
englische
engagi
energiee
eminen
emd
elb
eisk
einzigen
einstimmung
einstellung
einschränkungen
einschlafen
einsa
einlade
einh
eingeladen
einfü
eilmeldung
eif
edw
dunk
dud
drum
drohe
driv
doktor
diskussionen
disco
diepartei
diep
deutscheba
depo
demeter
dasni
daniela
danc
dais
dahin
dadurch
cut
csr
cott
control
coco
clas
chile
champ
cav
care
card
butto
brenne
bravo
braune
brat
boul
boot
board
bnp
blä
blind
blatter
bildungsbereich
bieb
bewaffn
beute
beur
besieg
beraten
bend
bembel
belieb
beko
beitritt
beis
begrüße
been
bedien
bedeut
bachelor
b2
autom
authent
ausgeschl
augsburg
aufwach
aufst
aufr
aufersteh
aufenthalt
arr
arch
anstrengen
anni
anleihen
anke
anima
angenehme
angenehm
angele
angefa
andischneider
ande
altern
akad
adidas
ade
abwa
abstiegska
abste
abnehmen
ablenk
abgeschafft
abgef
97
8i
5x
5e
3s
2q
125
##8r
##7gt
##5o
##39
##2x
##2o
##27
##è
##ã
##²
##í
##ğ
##ي
##ا
##о
##р
##ø
##â
##т
##и
##ن
##ب
##α
##ı
##ć
##с
##а
##ú
##ï
##ل
##ф
##б
##š
##ś
##ő
##û
##ê
##ლ
##ಠ
##و
##ه
##ف
##ص
##ر
##ح
##ё
##у
##м
##к
##з
##е
##π
##λ
##γ
##ί
##ž
##ř
##ù
##ô
##ñ
##ë
##å
##½
##益
##ツ
##ᴗ
##ٹ
##م
##ك
##ع
##ذ
##ث
##я
##э
##ь
##ы
##ч
##ц
##х
##н
##ж
##д
##г
##ώ
##ω
##τ
##σ
##ς
##ρ
##ο
##ν
##κ
##η
##ε
##ή
##ǀ
##ű
##ŕ
##ę
##ė
##ē
##ò
##î
##¾
##³
##~
##}
##|
##{
##`
##^
##]
##\
##[
##U
##S
##P
##O
##N
##M
##L
##K
##E
##D
##C
##A
##@
##?
##>
##=
##<
##;
##:
##/
##.
##-
##,
##+
##*
##)
##(
##'
##&
##%
##$
###
##"
##!
ب
ё
O
)
ô
ś
é
D
с
ί
ц
ğ
д
я
<
}
λ
э
;
ώ
U
S
&
¾
š
ا
ك
κ
م
о
р
ツ
+
³
/
½
(
ù
ث
@
í
ï
ŕ
ή
ν
ė
ಠ
е
х
ñ
ω
*
а
ë
â
ل
ه
ű
ф
?
ч
к
L
\
M
ᴗ
ρ
у
ø
]
ر
ß
г
ح
|
è
и
ő
û
K
ي
б
!
ò
N
ã
[
ы
ع
ǀ
ε
ú
ლ
ن
A
н
ف
ٹ
ı
⁹
>
à
ē
C
`
τ
.
ь
ذ
π
~
益
E
γ
å
ę
î
'
-
#
т
á
ê
"
ς
_
P
,
м
:
=
{
ó
з
ç
%
σ
و
^
ć
ř
η
ж
ص
α
$
²
ž
ο
